{
  "version": "1.0",
  "truncation": null,
  "padding": null,
  "added_tokens": [
    {
      "id": 0,
      "content": "<|endoftext|>",
      "single_word": false,
      "lstrip": false,
      "rstrip": false,
      "normalized": false,
      "special": true
    },
    {
      "id": 1,
      "content": "<|im_end|>",
      "single_word": false,
      "lstrip": false,
      "rstrip": false,
      "normalized": false,
      "special": true
    },
    {
      "id": 2,
      "content": "<|im_system|>",
      "single_word": false,
      "lstrip": false,
      "rstrip": false,
      "normalized": false,
      "special": true
    },
    {
      "id": 3,
      "content": "<|im_user|>",
      "single_word": false,
      "lstrip": false,
      "rstrip": false,
      "normalized": false,
      "special": true
    },
    {
      "id": 4,
      "content": "<|im_assistant|>",
      "single_word": false,
      "lstrip": false,
      "rstrip": false,
      "normalized": false,
      "special": true
    },
    {
      "id": 32764,
      "content": "\n\n",
      "single_word": false,
      "lstrip": false,
      "rstrip": false,
      "normalized": true,
      "special": false
    },
    {
      "id": 32765,
      "content": "  ",
      "single_word": false,
      "lstrip": false,
      "rstrip": false,
      "normalized": true,
      "special": false
    },
    {
      "id": 32766,
      "content": "   ",
      "single_word": false,
      "lstrip": false,
      "rstrip": false,
      "normalized": true,
      "special": false
    },
    {
      "id": 32767,
      "content": "    ",
      "single_word": false,
      "lstrip": false,
      "rstrip": false,
      "normalized": true,
      "special": false
    }
  ],
  "normalizer": null,
  "pre_tokenizer": {
    "type": "Sequence",
    "pretokenizers": [
      {
        "type": "Split",
        "pattern": {
          "Regex": "\u001f"
        },
        "behavior": "Removed",
        "invert": false
      },
      {
        "type": "ByteLevel",
        "add_prefix_space": false,
        "trim_offsets": true,
        "use_regex": true
      }
    ]
  },
  "post_processor": {
    "type": "ByteLevel",
    "add_prefix_space": true,
    "trim_offsets": false,
    "use_regex": true
  },
  "decoder": {
    "type": "ByteLevel",
    "add_prefix_space": true,
    "trim_offsets": true,
    "use_regex": true
  },
  "model": {
    "type": "BPE",
    "dropout": null,
    "unk_token": null,
    "continuing_subword_prefix": null,
    "end_of_word_suffix": null,
    "fuse_unk": false,
    "byte_fallback": false,
    "ignore_merges": false,
    "vocab": {
      "<|endoftext|>": 0,
      "<|im_end|>": 1,
      "<|im_system|>": 2,
      "<|im_user|>": 3,
      "<|im_assistant|>": 4,
      "!": 5,
      "\"": 6,
      "#": 7,
      "$": 8,
      "%": 9,
      "&": 10,
      "'": 11,
      "(": 12,
      ")": 13,
      "*": 14,
      "+": 15,
      ",": 16,
      "-": 17,
      ".": 18,
      "/": 19,
      "0": 20,
      "1": 21,
      "2": 22,
      "3": 23,
      "4": 24,
      "5": 25,
      "6": 26,
      "7": 27,
      "8": 28,
      "9": 29,
      ":": 30,
      ";": 31,
      "<": 32,
      "=": 33,
      ">": 34,
      "?": 35,
      "@": 36,
      "A": 37,
      "B": 38,
      "C": 39,
      "D": 40,
      "E": 41,
      "F": 42,
      "G": 43,
      "H": 44,
      "I": 45,
      "J": 46,
      "K": 47,
      "L": 48,
      "M": 49,
      "N": 50,
      "O": 51,
      "P": 52,
      "Q": 53,
      "R": 54,
      "S": 55,
      "T": 56,
      "U": 57,
      "V": 58,
      "W": 59,
      "X": 60,
      "Y": 61,
      "Z": 62,
      "[": 63,
      "\\": 64,
      "]": 65,
      "^": 66,
      "_": 67,
      "`": 68,
      "a": 69,
      "b": 70,
      "c": 71,
      "d": 72,
      "e": 73,
      "f": 74,
      "g": 75,
      "h": 76,
      "i": 77,
      "j": 78,
      "k": 79,
      "l": 80,
      "m": 81,
      "n": 82,
      "o": 83,
      "p": 84,
      "q": 85,
      "r": 86,
      "s": 87,
      "t": 88,
      "u": 89,
      "v": 90,
      "w": 91,
      "x": 92,
      "y": 93,
      "z": 94,
      "{": 95,
      "|": 96,
      "}": 97,
      "~": 98,
      "¡": 99,
      "¢": 100,
      "£": 101,
      "¤": 102,
      "¥": 103,
      "¦": 104,
      "§": 105,
      "¨": 106,
      "©": 107,
      "ª": 108,
      "«": 109,
      "¬": 110,
      "®": 111,
      "¯": 112,
      "°": 113,
      "±": 114,
      "²": 115,
      "³": 116,
      "´": 117,
      "µ": 118,
      "¶": 119,
      "·": 120,
      "¸": 121,
      "¹": 122,
      "º": 123,
      "»": 124,
      "¼": 125,
      "½": 126,
      "¾": 127,
      "¿": 128,
      "À": 129,
      "Á": 130,
      "Â": 131,
      "Ã": 132,
      "Ä": 133,
      "Å": 134,
      "Æ": 135,
      "Ç": 136,
      "È": 137,
      "É": 138,
      "Ê": 139,
      "Ë": 140,
      "Ì": 141,
      "Í": 142,
      "Î": 143,
      "Ï": 144,
      "Ð": 145,
      "Ñ": 146,
      "Ò": 147,
      "Ó": 148,
      "Ô": 149,
      "Õ": 150,
      "Ö": 151,
      "×": 152,
      "Ø": 153,
      "Ù": 154,
      "Ú": 155,
      "Û": 156,
      "Ü": 157,
      "Ý": 158,
      "Þ": 159,
      "ß": 160,
      "à": 161,
      "á": 162,
      "â": 163,
      "ã": 164,
      "ä": 165,
      "å": 166,
      "æ": 167,
      "ç": 168,
      "è": 169,
      "é": 170,
      "ê": 171,
      "ë": 172,
      "ì": 173,
      "í": 174,
      "î": 175,
      "ï": 176,
      "ð": 177,
      "ñ": 178,
      "ò": 179,
      "ó": 180,
      "ô": 181,
      "õ": 182,
      "ö": 183,
      "÷": 184,
      "ø": 185,
      "ù": 186,
      "ú": 187,
      "û": 188,
      "ü": 189,
      "ý": 190,
      "þ": 191,
      "ÿ": 192,
      "Ā": 193,
      "ā": 194,
      "Ă": 195,
      "ă": 196,
      "Ą": 197,
      "ą": 198,
      "Ć": 199,
      "ć": 200,
      "Ĉ": 201,
      "ĉ": 202,
      "Ċ": 203,
      "ċ": 204,
      "Č": 205,
      "č": 206,
      "Ď": 207,
      "ď": 208,
      "Đ": 209,
      "đ": 210,
      "Ē": 211,
      "ē": 212,
      "Ĕ": 213,
      "ĕ": 214,
      "Ė": 215,
      "ė": 216,
      "Ę": 217,
      "ę": 218,
      "Ě": 219,
      "ě": 220,
      "Ĝ": 221,
      "ĝ": 222,
      "Ğ": 223,
      "ğ": 224,
      "Ġ": 225,
      "ġ": 226,
      "Ģ": 227,
      "ģ": 228,
      "Ĥ": 229,
      "ĥ": 230,
      "Ħ": 231,
      "ħ": 232,
      "Ĩ": 233,
      "ĩ": 234,
      "Ī": 235,
      "ī": 236,
      "Ĭ": 237,
      "ĭ": 238,
      "Į": 239,
      "į": 240,
      "İ": 241,
      "ı": 242,
      "Ĳ": 243,
      "ĳ": 244,
      "Ĵ": 245,
      "ĵ": 246,
      "Ķ": 247,
      "ķ": 248,
      "ĸ": 249,
      "Ĺ": 250,
      "ĺ": 251,
      "Ļ": 252,
      "ļ": 253,
      "Ľ": 254,
      "ľ": 255,
      "Ŀ": 256,
      "ŀ": 257,
      "Ł": 258,
      "ł": 259,
      "Ń": 260,
      "ä¸": 261,
      "ï¼": 262,
      "çļ": 263,
      "çļĦ": 264,
      "ï¼Į": 265,
      "ãĢ": 266,
      "äº": 267,
      "åħ": 268,
      "åı": 269,
      "æľ": 270,
      "ä»": 271,
      "å®": 272,
      "åĪ": 273,
      "ãĢĤ": 274,
      "åĲ": 275,
      "å¤": 276,
      "ç»": 277,
      "çĶ": 278,
      "è¿": 279,
      "ä¹": 280,
      "in": 281,
      "åľ": 282,
      "ä½": 283,
      "åĽ": 284,
      "åĬ": 285,
      "æĺ": 286,
      "th": 287,
      "æĸ": 288,
      "å¹": 289,
      "re": 290,
      "æĪ": 291,
      "ãĢģ": 292,
      "è®": 293,
      "æĹ": 294,
      "on": 295,
      "an": 296,
      "--": 297,
      "ti": 298,
      "æĿ": 299,
      "ä¼": 300,
      "åŃ": 301,
      "è¯": 302,
      "åº": 303,
      "ä¸Ģ": 304,
      "åĨ": 305,
      "å°": 306,
      "æĺ¯": 307,
      "åį": 308,
      "åľ¨": 309,
      "å¯": 310,
      "ä¸Ń": 311,
      "æĶ": 312,
      "en": 313,
      "ä¸º": 314,
      "åĴ": 315,
      "er": 316,
      "åĴĮ": 317,
      "æķ": 318,
      "åĽ½": 319,
      "å¼": 320,
      "éĩ": 321,
      "åĮ": 322,
      "âĢ": 323,
      "æ°": 324,
      "al": 325,
      "äºº": 326,
      "å±": 327,
      "æŃ": 328,
      "æĢ": 329,
      "è¡": 330,
      "ç§": 331,
      "çĽ": 332,
      "æī": 333,
      "èĢ": 334,
      "ed": 335,
      "the": 336,
      "å¾": 337,
      "å·": 338,
      "æľī": 339,
      "éĢ": 340,
      "è§": 341,
      "åĩ": 342,
      "æ³": 343,
      "ä¿": 344,
      "è´": 345,
      "or": 346,
      "å¹´": 347,
      "åŁ": 348,
      "at": 349,
      "å¤§": 350,
      "èĥ": 351,
      "ä¸į": 352,
      "es": 353,
      "æĬ": 354,
      "çİ": 355,
      "äºĨ": 356,
      "ä»¥": 357,
      "å½": 358,
      "èĩ": 359,
      "of": 360,
      "å¸": 361,
      "æł": 362,
      "as": 363,
      "èµ": 364,
      "åıĳ": 365,
      "åŃ¦": 366,
      "éĻ": 367,
      "å®¶": 368,
      "is": 369,
      "¦ģ": 370,
      "çĶŁ": 371,
      "æµ": 372,
      "----": 373,
      "å¯¹": 374,
      "æ³ķ": 375,
      "and": 376,
      "çŃ": 377,
      "è¦ģ": 378,
      "çĲ": 379,
      "ä¸İ": 380,
      "äºİ": 381,
      "éĿ": 382,
      "tion": 383,
      "æĹ¶": 384,
      "å¿": 385,
      "çī": 386,
      "æŀ": 387,
      "æİ": 388,
      "è¡Į": 389,
      "ro": 390,
      "éĹ": 391,
      "åİ": 392,
      "é¢": 393,
      "ä¹ĭ": 394,
      "éĥ": 395,
      "æĪĲ": 396,
      "çĶ¨": 397,
      "çº": 398,
      "çĲĨ": 399,
      "èĥ½": 400,
      "ä¸Ĭ": 401,
      "ä¸»": 402,
      "ar": 403,
      "ic": 404,
      "æ²": 405,
      "æĸ¹": 406,
      "æĮ": 407,
      "ä¼ļ": 408,
      "å®ŀ": 409,
      "ä½ľ": 410,
      "åĮĸ": 411,
      "ä¸ļ": 412,
      "åĩº": 413,
      "åľ°": 414,
      "åĲİ": 415,
      "å®ļ": 416,
      "ing": 417,
      "ï¼ī": 418,
      "to": 419,
      "æĢ§": 420,
      "éķ": 421,
      "ï¼Ī": 422,
      "ä¾": 423,
      "æľ¬": 424,
      "è¿Ľ": 425,
      "æĶ¿": 426,
      "ä½ĵ": 427,
      "ä¸ª": 428,
      "åĪĨ": 429,
      "è¾": 430,
      "el": 431,
      "åĳ": 432,
      "ç«": 433,
      "ä¿¡": 434,
      "åĲĮ": 435,
      "âĢľ": 436,
      "è¿Ļ": 437,
      "âĢĿ": 438,
      "åĪ¶": 439,
      "åı¯": 440,
      "ent": 441,
      "åĬ¨": 442,
      "åħ¶": 443,
      "ä¹ī": 444,
      "åĬĽ": 445,
      "ç»ı": 446,
      "ç¨": 447,
      "çİ°": 448,
      "éķ¿": 449,
      "ç¤": 450,
      "èĢĮ": 451,
      "æı": 452,
      "éĺ": 453,
      "åħ³": 454,
      "çŃī": 455,
      "å»": 456,
      "åĲĪ": 457,
      "äº§": 458,
      "éĩį": 459,
      "ä»£": 460,
      "le": 461,
      "st": 462,
      "æ±": 463,
      "å±ķ": 464,
      "æĿ¥": 465,
      "åī": 466,
      "ç³": 467,
      "ac": 468,
      "ç®": 469,
      "é«": 470,
      "æĸ°": 471,
      "æ°ĳ": 472,
      "èĩª": 473,
      "é«ĺ": 474,
      "åĪ°": 475,
      "æį": 476,
      "æ´": 477,
      "å¥": 478,
      "ec": 479,
      "it": 480,
      "ç³»": 481,
      "ä¸ĭ": 482,
      "åħ¨": 483,
      "éģ": 484,
      "åŁİ": 485,
      "åºĶ": 486,
      "è¿ĩ": 487,
      "æĭ": 488,
      "æĪĺ": 489,
      "åĪ©": 490,
      "æĸĩ": 491,
      "ation": 492,
      "æĥ": 493,
      "å»º": 494,
      "åº¦": 495,
      "ç¬": 496,
      "æĦ": 497,
      "è°": 498,
      "åĨħ": 499,
      "ä¸ī": 500,
      "æ¯": 501,
      "å·¥": 502,
      "æķĻ": 503,
      "èĤ": 504,
      "éĿ¢": 505,
      "çŁ": 506,
      "æĹ¥": 507,
      "¦Ĥ": 508,
      "æķ°": 509,
      "å°Ĩ": 510,
      "èĢħ": 511,
      "è½": 512,
      "ç½": 513,
      "éļ": 514,
      "æīĢ": 515,
      "éĥ¨": 516,
      "å¤ļ": 517,
      "ul": 518,
      "ç¤¾": 519,
      "åĨĽ": 520,
      "åĽł": 521,
      "åıĳå±ķ": 522,
      "si": 523,
      "åŃĲ": 524,
      "çĶ°": 525,
      "co": 526,
      "åŁº": 527,
      "res": 528,
      "æıĲ": 529,
      "åĵ": 530,
      "ä¹Ł": 531,
      "ç¨ĭ": 532,
      "--------": 533,
      "è¶": 534,
      "çł": 535,
      "äºĭ": 536,
      "æĻ": 537,
      "çķ": 538,
      "æ¬": 539,
      "æŃ¤": 540,
      "è®¾": 541,
      "æĿĥ": 542,
      "éĢļ": 543,
      "æ°ı": 544,
      "åĢ": 545,
      "å¹¶": 546,
      "åīį": 547,
      "us": 548,
      "å½ĵ": 549,
      "æŃ£": 550,
      "ç©": 551,
      "å¢": 552,
      "ç¡": 553,
      "çĽ¸": 554,
      "å¹³": 555,
      "æľº": 556,
      "åıĬ": 557,
      "åĬł": 558,
      "æ²»": 559,
      "èģ": 560,
      "ä»ĸ": 561,
      "æĽ": 562,
      "ç»Ł": 563,
      "èµĦ": 564,
      "å°±": 565,
      "åħ¬": 566,
      "ç¬¬": 567,
      "çī©": 568,
      "è·": 569,
      "åĬ¡": 570,
      "è¢": 571,
      "ä»İ": 572,
      "ç§į": 573,
      "æį®": 574,
      "å¼Ģ": 575,
      "æľĪ": 576,
      "di": 577,
      "ç«ĭ": 578,
      "åĿ": 579,
      "æĺİ": 580,
      "æ¸": 581,
      "é¡": 582,
      "ç¤¾ä¼ļ": 583,
      "ä¿Ŀ": 584,
      "éĩı": 585,
      "éĹ´": 586,
      "et": 587,
      "ere": 588,
      "å¦Ĥ": 589,
      "è§Ħ": 590,
      "åħ¥": 591,
      "ä¸ŃåĽ½": 592,
      "ly": 593,
      "00": 594,
      "ç»ĵ": 595,
      "åįģ": 596,
      "å¾Ĺ": 597,
      "æĪĳ": 598,
      "wi": 599,
      "for": 600,
      "åİŁ": 601,
      "ur": 602,
      "äºĮ": 603,
      "çĶ±": 604,
      "è¢«": 605,
      "çĤ": 606,
      "å¼ı": 607,
      "çĦ": 608,
      "é¢Ĩ": 609,
      "èī": 610,
      "æľŁ": 611,
      "ä½¿": 612,
      "ç®¡": 613,
      "çľ": 614,
      "æĪĸ": 615,
      "pro": 616,
      "åĲĳ": 617,
      "åħĥ": 618,
      "un": 619,
      "ve": 620,
      "æĿ¡": 621,
      "lo": 622,
      "ç¾": 623,
      "çĿ": 624,
      "åģ": 625,
      "ä»¬": 626,
      "ig": 627,
      "å¤©": 628,
      "he": 629,
      "å±±": 630,
      "çĦ¶": 631,
      "çī¹": 632,
      "15": 633,
      "æº": 634,
      "æģ": 635,
      "å¤ĸ": 636,
      "with": 637,
      "æŁ": 638,
      "å¼º": 639,
      "ä»»": 640,
      "è®¡": 641,
      "de": 642,
      "mp": 643,
      "çłĶ": 644,
      "ä½į": 645,
      "è§£": 646,
      "æĦı": 647,
      "æľĢ": 648,
      "æľ¯": 649,
      "éĽ": 650,
      "åĲį": 651,
      "è¡¨": 652,
      "æĮģ": 653,
      "æĬĢ": 654,
      "åħļ": 655,
      "å°ı": 656,
      "ï¼ļ": 657,
      "ä½Ĩ": 658,
      "å¿ĥ": 659,
      "åħ±": 660,
      "å½¢": 661,
      "æŀĦ": 662,
      "åıĺ": 663,
      "æµİ": 664,
      "å¸Ĥ": 665,
      "é¢ĺ": 666,
      "å§": 667,
      "è®º": 668,
      "ç±": 669,
      "éľ": 670,
      "ce": 671,
      "çĤ¹": 672,
      "çĽ®": 673,
      "è´¨": 674,
      "åĮº": 675,
      "ç»ıæµİ": 676,
      "ch": 677,
      "mo": 678,
      "ç´": 679,
      "å®ī": 680,
      "con": 681,
      "ab": 682,
      "æ¶": 683,
      "æłĩ": 684,
      "ç§ĳ": 685,
      "éĥ½": 686,
      "20": 687,
      "ç©¶": 688,
      "ex": 689,
      "å¯¼": 690,
      "æ±Ĥ": 691,
      "å·Ŀ": 692,
      "æºĲ": 693,
      "tr": 694,
      "**": 695,
      "æĶ¹": 696,
      "æ¬¡": 697,
      "ç¥": 698,
      "ter": 699,
      "ãĢĬ": 700,
      "ãĢĭ": 701,
      "åŀ": 702,
      "éĹ®": 703,
      "se": 704,
      "æ¡": 705,
      "æĹł": 706,
      "ag": 707,
      "su": 708,
      "æĽ´": 709,
      "å²": 710,
      "éª": 711,
      "åĲĦ": 712,
      "ati": 713,
      "ç§Ģ": 714,
      "è¯´": 715,
      "è®¤": 716,
      "åħ·": 717,
      "me": 718,
      "ç»Ħ": 719,
      "æĮĩ": 720,
      "ä¼ł": 721,
      "åĪĻ": 722,
      "po": 723,
      "èĤ²": 724,
      "ï¼Ľ": 725,
      "æķĪ": 726,
      "çłĶç©¶": 727,
      "éģĵ": 728,
      "èµ·": 729,
      "ä»¶": 730,
      "æĢĿ": 731,
      "æŃ¦": 732,
      "ell": 733,
      "çĻ": 734,
      "ç»ĩ": 735,
      "ment": 736,
      "ç¼": 737,
      "æ°´": 738,
      "èĲ": 739,
      "ä¸ĸ": 740,
      "åĪĽ": 741,
      "id": 742,
      "æ¨": 743,
      "æ·": 744,
      "ç¡®": 745,
      "æ´»": 746,
      "åĨ³": 747,
      "åľº": 748,
      "é£": 749,
      "ä¸Ģä¸ª": 750,
      "##": 751,
      "ated": 752,
      "ç±»": 753,
      "åĽ½å®¶": 754,
      "ho": 755,
      "ç¦": 756,
      "æ®": 757,
      "æĥħ": 758,
      "çŁ¥": 759,
      "èĬ": 760,
      "are": 761,
      "éľĢ": 762,
      "il": 763,
      "è¿Ľè¡Į": 764,
      "å¤Ħ": 765,
      "ä¸»ä¹ī": 766,
      "é©": 767,
      "åı¯ä»¥": 768,
      "æŀľ": 769,
      "éĩĳ": 770,
      "äº¤": 771,
      "ut": 772,
      "æİ¨": 773,
      "æµģ": 774,
      "çĿĢ": 775,
      "è¯Ĩ": 776,
      "åŀĭ": 777,
      "ad": 778,
      "æİ¥": 779,
      "ä¸¤": 780,
      "åºľ": 781,
      "çĸ": 782,
      "è°ĥ": 783,
      "no": 784,
      "æĬ¤": 785,
      "éĢł": 786,
      "å¢ŀ": 787,
      "åĵģ": 788,
      "åı²": 789,
      "çĶµ": 790,
      "éĹ®é¢ĺ": 791,
      "åĳĺ": 792,
      "åĮĹ": 793,
      "be": 794,
      "å¸¸": 795,
      "åĽĽ": 796,
      "å¥½": 797,
      "åıĸ": 798,
      "ç²": 799,
      "æĬĢæľ¯": 800,
      "åıĹ": 801,
      "ä»·": 802,
      "åıį": 803,
      "æ¨¡": 804,
      "éĶ": 805,
      "ä¸ľ": 806,
      "ä¼ģ": 807,
      "éħ": 808,
      "ol": 809,
      "èĩ³": 810,
      "äºĽ": 811,
      "çĹ": 812,
      "å£": 813,
      "that": 814,
      "åŃĺ": 815,
      "ver": 816,
      "ap": 817,
      "im": 818,
      "èĮ": 819,
      "è¿ĺ": 820,
      "èĻ": 821,
      "è½¬": 822,
      "ts": 823,
      "çĽ´": 824,
      "éĻ¢": 825,
      "åĬ¿": 826,
      "am": 827,
      "æĢģ": 828,
      "è¿ĳ": 829,
      "19": 830,
      "è¯ģ": 831,
      "çİĩ": 832,
      "tic": 833,
      "ity": 834,
      "è§Ĥ": 835,
      "è¿Ĳ": 836,
      "åĳ½": 837,
      "10": 838,
      "um": 839,
      "æĶ¯": 840,
      "æ¯Ķ": 841,
      "æĶ¶": 842,
      "åĨľ": 843,
      "è®°": 844,
      "ä¼ģä¸ļ": 845,
      "ç®¡çĲĨ": 846,
      "ff": 847,
      "æľį": 848,
      "èĭ": 849,
      "èĩ£": 850,
      "åİĨ": 851,
      "æķĻèĤ²": 852,
      "å·²": 853,
      "å¾·": 854,
      "äººæ°ĳ": 855,
      "èģĶ": 856,
      "per": 857,
      "éĹ¨": 858,
      "æģ¯": 859,
      "åº·": 860,
      "was": 861,
      "éĵ": 862,
      "ä¹ł": 863,
      "è±": 864,
      "éĻħ": 865,
      "éĿ©": 866,
      "èĪ": 867,
      "è¾¾": 868,
      "åĩĨ": 869,
      "cell": 870,
      "ä¹¦": 871,
      "éĢļè¿ĩ": 872,
      "èº": 873,
      "æĢ»": 874,
      "ir": 875,
      "äºĶ": 876,
      "----------------": 877,
      "è¥": 878,
      "The": 879,
      "were": 880,
      "gen": 881,
      "çİ¯": 882,
      "å¾ĭ": 883,
      "ä¾Ľ": 884,
      "ç¾İ": 885,
      "å»ºè®¾": 886,
      "åħĪ": 887,
      "è¥¿": 888,
      "æĥ³": 889,
      "çĬ": 890,
      "æĹı": 891,
      "æĸ½": 892,
      "ç½ĳ": 893,
      "èĹ": 894,
      "è·¯": 895,
      "éĽĨ": 896,
      "èº«": 897,
      "èį": 898,
      "åĲī": 899,
      "by": 900,
      "åķ": 901,
      "ma": 902,
      "ate": 903,
      "å®Ī": 904,
      "æĿĳ": 905,
      "å·¥ä½ľ": 906,
      "çĪ": 907,
      "è§ģ": 908,
      "æł·": 909,
      "æķ°æį®": 910,
      "åĮħ": 911,
      "æĶ¾": 912,
      "å¢ĥ": 913,
      "å®Į": 914,
      "åĢ¼": 915,
      "éĩįè¦ģ": 916,
      "æĹ¶ä»£": 917,
      "çº§": 918,
      "uc": 919,
      "è®®": 920,
      "ç§°": 921,
      "é¦": 922,
      "so": 923,
      "æł¹": 924,
      "è¶³": 925,
      "å¤į": 926,
      "çŃĸ": 927,
      "pres": 928,
      "çģ": 929,
      "å¿ħ": 930,
      "åķĨ": 931,
      "æĸŃ": 932,
      "èī²": 933,
      "åįķ": 934,
      "åĸ": 935,
      "ç³»ç»Ł": 936,
      "we": 937,
      "çķĮ": 938,
      "æľĿ": 939,
      "pe": 940,
      "æī¿": 941,
      "å¤ĩ": 942,
      "æŃ¥": 943,
      "åį³": 944,
      "ç¥ŀ": 945,
      "åĪ«": 946,
      "ä½ľä¸º": 947,
      "ted": 948,
      "çĽĬ": 949,
      "æ·±": 950,
      "åıĤ": 951,
      "æ¸ħ": 952,
      "éĤ": 953,
      "è£": 954,
      "åı¸": 955,
      "æĸ¹éĿ¢": 956,
      "é¡¹": 957,
      "èģĮ": 958,
      "åŁŁ": 959,
      "cl": 960,
      "åħī": 961,
      "åĬŁ": 962,
      "æķ´": 963,
      "æľª": 964,
      "æĶ»": 965,
      "ç´ł": 966,
      "åĽ¾": 967,
      "å®Ĺ": 968,
      "if": 969,
      "éªĮ": 970,
      "ä¸ĵ": 971,
      "ther": 972,
      "ç»Ĩ": 973,
      "æ¡Ī": 974,
      "åľŁ": 975,
      "å½±": 976,
      "æ»": 977,
      "äº²": 978,
      "åħµ": 979,
      "å¼ķ": 980,
      "ä¼Ĺ": 981,
      "è´£": 982,
      "äºī": 983,
      "èĮĥ": 984,
      "ty": 985,
      "éĿŀ": 986,
      "åħ³ç³»": 987,
      "åĪ¶åº¦": 988,
      "èĦ": 989,
      "ä¿¡æģ¯": 990,
      "åĻ": 991,
      "åŃ¦çĶŁ": 992,
      "é£İ": 993,
      "ç»§": 994,
      "ä¾Ŀ": 995,
      "qu": 996,
      "ä¸»è¦ģ": 997,
      "è¯¥": 998,
      "sp": 999,
      "åħ»": 1000,
      "ical": 1001,
      "æ²¡": 1002,
      "å®¹": 1003,
      "èŀ": 1004,
      "ç®Ĺ": 1005,
      "ib": 1006,
      "æĪĳä»¬": 1007,
      "çº¿": 1008,
      "æł¼": 1009,
      "è¶Ĭ": 1010,
      "ç»Ń": 1011,
      "æµĭ": 1012,
      "æĸĩåĮĸ": 1013,
      "å®ŀçİ°": 1014,
      "æ£": 1015,
      "æīĭ": 1016,
      "åĵį": 1017,
      "æĻ¯": 1018,
      "sion": 1019,
      "çĹħ": 1020,
      "è¾ĥ": 1021,
      "ç»Ļ": 1022,
      "èĬĤ": 1023,
      "æµ·": 1024,
      "é©¬": 1025,
      "ç¤º": 1026,
      "ä¾ĭ": 1027,
      "åİ»": 1028,
      "ne": 1029,
      "ç¡Ģ": 1030,
      "èŀį": 1031,
      "åŁºç¡Ģ": 1032,
      "åıª": 1033,
      "æĬĬ": 1034,
      "çº¦": 1035,
      "æİ§": 1036,
      "æīį": 1037,
      "åĻ¨": 1038,
      "12": 1039,
      "ant": 1040,
      "ä¼ĺ": 1041,
      "èİ": 1042,
      "åıĪ": 1043,
      "vel": 1044,
      "çŁ³": 1045,
      "å¯º": 1046,
      "èĢĥ": 1047,
      "åĽŀ": 1048,
      "æĪĲä¸º": 1049,
      "å¾ģ": 1050,
      "ain": 1051,
      "éļı": 1052,
      "å¸Ī": 1053,
      "æľįåĬ¡": 1054,
      "æĺĵ": 1055,
      "å±Ĥ": 1056,
      "éĴ": 1057,
      "æŀģ": 1058,
      "èĥľ": 1059,
      "dis": 1060,
      "è§Ĩ": 1061,
      "16": 1062,
      "æĺ¾": 1063,
      "åı£": 1064,
      "rom": 1065,
      "è¿ĩç¨ĭ": 1066,
      "å¹¿": 1067,
      "åŃĹ": 1068,
      "In": 1069,
      "å°ĳ": 1070,
      "ure": 1071,
      "èĩ´": 1072,
      "éľĢè¦ģ": 1073,
      "æĪ·": 1074,
      "ç²¾": 1075,
      "wh": 1076,
      "æĬķ": 1077,
      "åįĹ": 1078,
      "åĿļ": 1079,
      "éĩİ": 1080,
      "å®ĥ": 1081,
      "åįı": 1082,
      "ç»´": 1083,
      "ud": 1084,
      "è¯¾": 1085,
      "è¯Ħ": 1086,
      "te": 1087,
      "æĦŁ": 1088,
      "è¯Ń": 1089,
      "æ®µ": 1090,
      "éĻ©": 1091,
      "ä¸ĩ": 1092,
      "ç»Ħç»ĩ": 1093,
      "åİĨåı²": 1094,
      "å¸Ĥåľº": 1095,
      "ine": 1096,
      "çķ¥": 1097,
      "ase": 1098,
      "èĥ½åĬĽ": 1099,
      "å§ĭ": 1100,
      "å½±åĵį": 1101,
      "åĨį": 1102,
      "ents": 1103,
      "æ²³": 1104,
      "ä¹ħ": 1105,
      "çĽĳ": 1106,
      "çĥ": 1107,
      "ä¿¡éķ¿": 1108,
      "æł¸": 1109,
      "sis": 1110,
      "è¨": 1111,
      "æ±Ł": 1112,
      "çľŁ": 1113,
      "çª": 1114,
      "åħ´": 1115,
      "ä»Ĭ": 1116,
      "ä¸įåĲĮ": 1117,
      "è¨Ģ": 1118,
      "çľĭ": 1119,
      "vi": 1120,
      "åĪĴ": 1121,
      "æŃ»": 1122,
      "ä¸°": 1123,
      "è±¡": 1124,
      "è§Ħå®ļ": 1125,
      "å±Ģ": 1126,
      "åħ·æľī": 1127,
      "å¸¦": 1128,
      "çĲĨè®º": 1129,
      "æĬ¥": 1130,
      "ä½ĵç³»": 1131,
      "æĸ¹æ³ķ": 1132,
      "ä½¿çĶ¨": 1133,
      "ä»¥åıĬ": 1134,
      "çĭ": 1135,
      "çĶŁäº§": 1136,
      "ess": 1137,
      "igh": 1138,
      "æŀĲ": 1139,
      "od": 1140,
      "èĲ¥": 1141,
      "åĬ©": 1142,
      "æ²¡æľī": 1143,
      "ä½ķ": 1144,
      "åĩ»": 1145,
      "è¦ģæ±Ĥ": 1146,
      "å¸ĥ": 1147,
      "äº¬": 1148,
      "å¤±": 1149,
      "14": 1150,
      "æĶ¿æ²»": 1151,
      "æĪĳåĽ½": 1152,
      "éĢī": 1153,
      "å®īåħ¨": 1154,
      "li": 1155,
      "ä½İ": 1156,
      "up": 1157,
      "op": 1158,
      "åĨµ": 1159,
      "ç»Ī": 1160,
      "æ°Ķ": 1161,
      "ay": 1162,
      "å¾Ī": 1163,
      "åĪĽæĸ°": 1164,
      "æ³ķå¾ĭ": 1165,
      "âĢĶ": 1166,
      "æĴ": 1167,
      "çİ¯å¢ĥ": 1168,
      "åŁºæľ¬": 1169,
      "from": 1170,
      "ãģ": 1171,
      "comp": 1172,
      "åħŃ": 1173,
      "éĻ¤": 1174,
      "åĽ´": 1175,
      "ref": 1176,
      "æĸĻ": 1177,
      "å¿µ": 1178,
      "å¾Ģ": 1179,
      "éħį": 1180,
      "æ³¨": 1181,
      "pati": 1182,
      "æĶ¿åºľ": 1183,
      "å¿ł": 1184,
      "äºĴ": 1185,
      "éĺ²": 1186,
      "ç½®": 1187,
      "èİ·": 1188,
      "åı¯èĥ½": 1189,
      "ä»ħ": 1190,
      "ç§ĳåŃ¦": 1191,
      "éĩĮ": 1192,
      "æ¶Ī": 1193,
      "å±ŀ": 1194,
      "è®©": 1195,
      "çħ": 1196,
      "åºı": 1197,
      "ri": 1198,
      "ä¸Ķ": 1199,
      "çĬ¶": 1200,
      "åĸĦ": 1201,
      "æıĲä¾Ľ": 1202,
      "å·±": 1203,
      "éĻĲ": 1204,
      "æĤ": 1205,
      "ind": 1206,
      "è¡Įä¸º": 1207,
      "éĩĩ": 1208,
      "èµĸ": 1209,
      "éĺŁ": 1210,
      "11": 1211,
      "æŁ¥": 1212,
      "å²Ľ": 1213,
      "ci": 1214,
      "æ°¸": 1215,
      "cells": 1216,
      "æĶ¹éĿ©": 1217,
      "ä½ľçĶ¨": 1218,
      "ç©º": 1219,
      "åħ«": 1220,
      "åĲĮæĹ¶": 1221,
      "ç»ĩçĶ°": 1222,
      "æł¡": 1223,
      "und": 1224,
      "å£«": 1225,
      "æĭħ": 1226,
      "åĪĨæŀĲ": 1227,
      "æĻº": 1228,
      "åĽłæŃ¤": 1229,
      "ç§¯": 1230,
      "è´¹": 1231,
      "åįĩ": 1232,
      "é¡»": 1233,
      "ph": 1234,
      "éļ¾": 1235,
      "å°±æĺ¯": 1236,
      "åģļ": 1237,
      "type": 1238,
      "è¿°": 1239,
      "æĸ¹å¼ı": 1240,
      "åŃ¦ä¹ł": 1241,
      "ç§ĢåĲī": 1242,
      "è´¢": 1243,
      "å®¡": 1244,
      "éĢĤ": 1245,
      "æĭ¬": 1246,
      "åįİ": 1247,
      "age": 1248,
      "å½¢æĪĲ": 1249,
      "gn": 1250,
      "sy": 1251,
      "åĳĬ": 1252,
      "ç»ĵæŀĦ": 1253,
      "13": 1254,
      "é¦ĸ": 1255,
      "åĦ": 1256,
      "éĢŁ": 1257,
      "ä¼Ĭ": 1258,
      "åĪĹ": 1259,
      "éĺ¶": 1260,
      "ç¤¾ä¼ļä¸»ä¹ī": 1261,
      "æķĻåŃ¦": 1262,
      "pre": 1263,
      "çĻ¾": 1264,
      "èĩªå·±": 1265,
      "æĿ¾": 1266,
      "è¯ķ": 1267,
      "é¢Ħ": 1268,
      "æĢĿæĥ³": 1269,
      "åħĭ": 1270,
      "do": 1271,
      "èµĦæºĲ": 1272,
      "è¿ĻäºĽ": 1273,
      "æ¦Ĥ": 1274,
      "Th": 1275,
      "åĬ³": 1276,
      "pl": 1277,
      "åĪĿ": 1278,
      "åŃĺåľ¨": 1279,
      "è·µ": 1280,
      "åħ¬åı¸": 1281,
      "çİ°ä»£": 1282,
      "ä¹Ŀ": 1283,
      "éĻį": 1284,
      "ä¸ĸçķĮ": 1285,
      "åį«": 1286,
      "åł": 1287,
      "ç¦»": 1288,
      "ä¸Ģç§į": 1289,
      "è¯·": 1290,
      "å±ħ": 1291,
      "can": 1292,
      "è®¤ä¸º": 1293,
      "åŁ¹": 1294,
      "å¼ł": 1295,
      "åı°": 1296,
      "tor": 1297,
      "ä¾¿": 1298,
      "æ£Ģ": 1299,
      "cy": 1300,
      "æī§": 1301,
      "ha": 1302,
      "med": 1303,
      "ç¾¤": 1304,
      "18": 1305,
      "ç»ľ": 1306,
      "ä¸¥": 1307,
      "åºĶçĶ¨": 1308,
      "æıĲåĩº": 1309,
      "ä»¤": 1310,
      "çĪ¶": 1311,
      "åı·": 1312,
      "åĮħæĭ¬": 1313,
      "åħ¶ä»ĸ": 1314,
      "æĶ¿çŃĸ": 1315,
      "çªģ": 1316,
      "ä¹ĭéĹ´": 1317,
      "able": 1318,
      "ers": 1319,
      "CR": 1320,
      "str": 1321,
      "çĽ¸åħ³": 1322,
      "æīĵ": 1323,
      "èĳ": 1324,
      "em": 1325,
      "è´Ł": 1326,
      "å®ŀè·µ": 1327,
      "ç¢": 1328,
      "å®ĺ": 1329,
      "ä¹Ī": 1330,
      "é»": 1331,
      "æ´»åĬ¨": 1332,
      "éĥ¨åĪĨ": 1333,
      "åĽ¢": 1334,
      "å»ºç«ĭ": 1335,
      "åĽ½éĻħ": 1336,
      "äº§ä¸ļ": 1337,
      "æıĲé«ĺ": 1338,
      "tive": 1339,
      "æŃ¦çĶ°": 1340,
      "ä¿ĿæĬ¤": 1341,
      "çŁ¥è¯Ĩ": 1342,
      "åıĳçĶŁ": 1343,
      "ations": 1344,
      "æ´¾": 1345,
      "all": 1346,
      "åı¤": 1347,
      "åĨħå®¹": 1348,
      "æ¯Ľ": 1349,
      "åĶ": 1350,
      "çħ§": 1351,
      "æĥħåĨµ": 1352,
      "æĪĸèĢħ": 1353,
      "æ»¡": 1354,
      "èĲ½": 1355,
      "å¯Į": 1356,
      "par": 1357,
      "æ¿": 1358,
      "è®¾è®¡": 1359,
      "çĿ£": 1360,
      "åĥ": 1361,
      "éĤ£": 1362,
      "val": 1363,
      "å¹ķ": 1364,
      "ence": 1365,
      "æĬĹ": 1366,
      "low": 1367,
      "åĪ¤": 1368,
      "ific": 1369,
      "ä¸¾": 1370,
      "å¿«": 1371,
      "çĽ®æłĩ": 1372,
      "æł¹æį®": 1373,
      "log": 1374,
      "å§Ķ": 1375,
      "å®³": 1376,
      "ä»·åĢ¼": 1377,
      "ç½ĳç»ľ": 1378,
      "å¹²": 1379,
      "æ´¥": 1380,
      "åĪĩ": 1381,
      "çºª": 1382,
      "å¦": 1383,
      "æłĩåĩĨ": 1384,
      "ä¹¡": 1385,
      "è¿ŀ": 1386,
      "çĮ": 1387,
      "è®¸": 1388,
      "åĳ¨": 1389,
      "è¿ľ": 1390,
      "å¯Ĩ": 1391,
      "est": 1392,
      "ary": 1393,
      "èĢģ": 1394,
      "æĹ¥æľ¬": 1395,
      "ä¸ĥ": 1396,
      "ä¿®": 1397,
      "åĦ¿": 1398,
      "åħħ": 1399,
      "èĹ¤": 1400,
      "patients": 1401,
      "NA": 1402,
      "inf": 1403,
      "éļľ": 1404,
      "tiv": 1405,
      "åħ¨éĿ¢": 1406,
      "æ°ĳæĹı": 1407,
      "å¿ħé¡»": 1408,
      "ans": 1409,
      "äºķ": 1410,
      "å®¶åº·": 1411,
      "æİ§åĪ¶": 1412,
      "è¿Ļç§į": 1413,
      "ç«ł": 1414,
      "ç¨İ": 1415,
      "å¿Ĺ": 1416,
      "é¾": 1417,
      "èī¯": 1418,
      "çĻ½": 1419,
      "ä¿ĥ": 1420,
      "åĿĩ": 1421,
      "çĲĥ": 1422,
      "å¤´": 1423,
      "è§Ĵ": 1424,
      "è¯ī": 1425,
      "sign": 1426,
      "ä»ĸä»¬": 1427,
      "æĹ¶éĹ´": 1428,
      "ear": 1429,
      "eren": 1430,
      "åı¦": 1431,
      "è¡ĮæĶ¿": 1432,
      "cont": 1433,
      "æĳ": 1434,
      "éĺµ": 1435,
      "çĶ±äºİ": 1436,
      "å¤ª": 1437,
      "å¼Ĥ": 1438,
      "åľ°åĮº": 1439,
      "200": 1440,
      "æ¯ı": 1441,
      "not": 1442,
      "åĮ»": 1443,
      "æ¢": 1444,
      "å·ŀ": 1445,
      "17": 1446,
      "inc": 1447,
      "use": 1448,
      "reg": 1449,
      "one": 1450,
      "æ³¢": 1451,
      "åįĥ": 1452,
      "åĬ³åĬ¨": 1453,
      "mic": 1454,
      "åĩı": 1455,
      "ort": 1456,
      "å¥³": 1457,
      "åĭ": 1458,
      "å¤ĦçĲĨ": 1459,
      "iz": 1460,
      "æ¬¾": 1461,
      "èīº": 1462,
      "å¯¹äºİ": 1463,
      "ç¬¬ä¸Ģ": 1464,
      "çĶŁæ´»": 1465,
      "æĪ¿": 1466,
      "ten": 1467,
      "çİĭ": 1468,
      "å®ŀæĸ½": 1469,
      "å¤®": 1470,
      "æĿī": 1471,
      "ç§»": 1472,
      "å®¤": 1473,
      "ich": 1474,
      "ä½Ĳ": 1475,
      "ous": 1476,
      "å¾·å·Ŀ": 1477,
      "æĹ©": 1478,
      "è½½": 1479,
      "çĸĹ": 1480,
      "æĿĲ": 1481,
      "äº§åĵģ": 1482,
      "this": 1483,
      "çł´": 1484,
      "æĮī": 1485,
      "å·®": 1486,
      "è¾¹": 1487,
      "çĭ¬": 1488,
      "fo": 1489,
      "æĸ¯": 1490,
      "æİ¢": 1491,
      "ug": 1492,
      "åħ±åĲĮ": 1493,
      "å¤Ł": 1494,
      "æİ¨è¿Ľ": 1495,
      "æİĴ": 1496,
      "è¡Ģ": 1497,
      "åĪ©çĶ¨": 1498,
      "æ¿Ģ": 1499,
      "sho": 1500,
      "æľºåĪ¶": 1501,
      "è´£ä»»": 1502,
      "çŃĳ": 1503,
      "æľ¨": 1504,
      "gro": 1505,
      "diff": 1506,
      "äº§çĶŁ": 1507,
      "åĽłä¸º": 1508,
      "åİĭ": 1509,
      "anti": 1510,
      "èĥŀ": 1511,
      "è´¨éĩı": 1512,
      "æŁĲ": 1513,
      "ä¸įæĸŃ": 1514,
      "ä¹±": 1515,
      "å®¶èĩ£": 1516,
      "åĬŀ": 1517,
      "å®ŀéĻħ": 1518,
      "ect": 1519,
      "mon": 1520,
      "æ¼": 1521,
      "ular": 1522,
      "æĿ¡ä»¶": 1523,
      "aly": 1524,
      "å¼Ģå§ĭ": 1525,
      "é¢ĨåŁŁ": 1526,
      "min": 1527,
      "æĶ¯æĮģ": 1528,
      "åĿļæĮģ": 1529,
      "äº¦": 1530,
      "åĲ¦": 1531,
      "çļĩ": 1532,
      "å¹ķåºľ": 1533,
      "ä¼łç»Ł": 1534,
      "é£İéĻ©": 1535,
      "è§£åĨ³": 1536,
      "åĢº": 1537,
      "ä»į": 1538,
      "ang": 1539,
      "ç¨³": 1540,
      "éĩĳèŀį": 1541,
      "ä¸Ńå¤®": 1542,
      "åĩł": 1543,
      "red": 1544,
      "ä¸ĬæĿī": 1545,
      "è´¥": 1546,
      "ç¬¬äºĮ": 1547,
      "æķħ": 1548,
      "resp": 1549,
      "tre": 1550,
      "å¤©æŃ£": 1551,
      "éĢĢ": 1552,
      "èĻ½": 1553,
      "ved": 1554,
      "tions": 1555,
      "gr": 1556,
      "cor": 1557,
      "ç½ª": 1558,
      "ob": 1559,
      "æľºæŀĦ": 1560,
      "è®¨": 1561,
      "æ°´å¹³": 1562,
      "åıĮ": 1563,
      "stud": 1564,
      "ance": 1565,
      "å·²ç»ı": 1566,
      "ll": 1567,
      "æľīæķĪ": 1568,
      "è¿Ļä¸ª": 1569,
      "æĸĹ": 1570,
      "com": 1571,
      "å¯Ł": 1572,
      "ä»ĵ": 1573,
      "åĩºçİ°": 1574,
      "eff": 1575,
      "æįŁ": 1576,
      "ç¼ĸ": 1577,
      "å¦Ĥæŀľ": 1578,
      "åį´": 1579,
      "ally": 1580,
      "èħ": 1581,
      "bo": 1582,
      "æİ¨åĬ¨": 1583,
      "è¶³åĪ©": 1584,
      "åºĶå½ĵ": 1585,
      "åĮĹæĿ¡": 1586,
      "æĮ¥": 1587,
      "have": 1588,
      "ç»Ĩèĥŀ": 1589,
      "éŁ": 1590,
      "rel": 1591,
      "åįł": 1592,
      "åģ¥": 1593,
      "çº³": 1594,
      "ä¸įèĥ½": 1595,
      "expres": 1596,
      "æĪĺçķ¥": 1597,
      "è¶ħ": 1598,
      "äº«": 1599,
      "åĬłå¼º": 1600,
      "ser": 1601,
      "åĲĪåĲĮ": 1602,
      "ç²¾ç¥ŀ": 1603,
      "æ¨¡å¼ı": 1604,
      "Fig": 1605,
      "æļ": 1606,
      "ased": 1607,
      "åĬŁèĥ½": 1608,
      "åħį": 1609,
      "æĽ¾": 1610,
      "æŃ¢": 1611,
      "bet": 1612,
      "form": 1613,
      "ä¸´": 1614,
      "fac": 1615,
      "æħ": 1616,
      "om": 1617,
      "é¡¹çĽ®": 1618,
      "å½Ĵ": 1619,
      "åºĨ": 1620,
      "éĢĲ": 1621,
      "å´": 1622,
      "æī©": 1623,
      "which": 1624,
      "äººåĳĺ": 1625,
      "æĻ®": 1626,
      "è®¡ç®Ĺ": 1627,
      "çĽĽ": 1628,
      "ä¾µ": 1629,
      "æ²»çĲĨ": 1630,
      "è£ħ": 1631,
      "hy": 1632,
      "çĶŁæĢģ": 1633,
      "é¢Ĩå¯¼": 1634,
      "ath": 1635,
      "study": 1636,
      "æĿĢ": 1637,
      "çķĻ": 1638,
      "æł¸å¿ĥ": 1639,
      "ç»ĵæŀľ": 1640,
      "åĨ³å®ļ": 1641,
      "æīĢæľī": 1642,
      "inter": 1643,
      "åıĺåĮĸ": 1644,
      "ä¹ĭæĪĺ": 1645,
      "å¨": 1646,
      "ari": 1647,
      "å¾¡": 1648,
      "ach": 1649,
      "--------------------------------": 1650,
      "éĥ¡": 1651,
      "åĨĻ": 1652,
      "æ¯ĽåĪ©": 1653,
      "èµ°": 1654,
      "æĹ¶æľŁ": 1655,
      "èĩªçĦ¶": 1656,
      "èį¯": 1657,
      "å°½": 1658,
      "ä½Ĩæĺ¯": 1659,
      "èĪ¬": 1660,
      "åľ°æĸ¹": 1661,
      "ä»ĭ": 1662,
      "æī¹": 1663,
      "out": 1664,
      "åĤ": 1665,
      "ç»ĵåĲĪ": 1666,
      "åİ¿": 1667,
      "analy": 1668,
      "30": 1669,
      "å°¾": 1670,
      "çī¹èī²": 1671,
      "åħ¶ä¸Ń": 1672,
      "åħ³äºİ": 1673,
      "åŁİå¸Ĥ": 1674,
      "differen": 1675,
      "Â·": 1676,
      "ä»½": 1677,
      "æĵ": 1678,
      "éĩĬ": 1679,
      "å¼Ł": 1680,
      "ç»Łä¸Ģ": 1681,
      "ä¸ĵä¸ļ": 1682,
      "ä»£è¡¨": 1683,
      "å½ķ": 1684,
      "å·¥ç¨ĭ": 1685,
      "ä¿ĥè¿Ľ": 1686,
      "åĽº": 1687,
      "åıĤä¸İ": 1688,
      "ast": 1689,
      "éĺ¶æ®µ": 1690,
      "èĥ½å¤Ł": 1691,
      "ä¸ĢæŃ¥": 1692,
      "å½¢å¼ı": 1693,
      "éĥ¨éĹ¨": 1694,
      "è¯Ŀ": 1695,
      "ass": 1696,
      "ative": 1697,
      "ç¼º": 1698,
      "ç»§æī¿": 1699,
      "end": 1700,
      "ç¦Ħ": 1701,
      "éļĨ": 1702,
      "åĨľä¸ļ": 1703,
      "æĬķèµĦ": 1704,
      "åĥı": 1705,
      "ä¸Ńå¿ĥ": 1706,
      "è´§": 1707,
      "ia": 1708,
      "æķ°åŃĹ": 1709,
      "ä½ı": 1710,
      "ä¸ºäºĨ": 1711,
      "èĤ¡": 1712,
      "è¾ĵ": 1713,
      "spec": 1714,
      "ial": 1715,
      "pr": 1716,
      "ä¸įæĺ¯": 1717,
      "åİŁåĪĻ": 1718,
      "fig": 1719,
      "è¿½": 1720,
      "ç®Ģ": 1721,
      "å·¦": 1722,
      "high": 1723,
      "åıĭ": 1724,
      "ory": 1725,
      "åĲĪä½ľ": 1726,
      "ä¿Ŀéļľ": 1727,
      "del": 1728,
      "ä¸Ńåįİ": 1729,
      "å®¢": 1730,
      "çľģ": 1731,
      "show": 1732,
      "ion": 1733,
      "sub": 1734,
      "25": 1735,
      "æĿĤ": 1736,
      "èĳĹ": 1737,
      "ç¬¬ä¸ī": 1738,
      "ata": 1739,
      "è¡¥": 1740,
      "ç§ĳæĬĢ": 1741,
      "soci": 1742,
      "æĭ©": 1743,
      "vid": 1744,
      "ï¼Ł": 1745,
      "ç»¼": 1746,
      "imp": 1747,
      "å°ģ": 1748,
      "ä½Ļ": 1749,
      "activ": 1750,
      "éģĹ": 1751,
      "ä¸ªäºº": 1752,
      "çĽ´æİ¥": 1753,
      "ç¾İåĽ½": 1754,
      "å¾ĹåĪ°": 1755,
      "ä»ĺ": 1756,
      "éķĩ": 1757,
      "åħ·ä½ĵ": 1758,
      "ven": 1759,
      "çĶ²": 1760,
      "åŁ¹åħ»": 1761,
      "æĪĺåĽ½": 1762,
      "éĥİ": 1763,
      "éĶ®": 1764,
      "cer": 1765,
      "åħ¨åĽ½": 1766,
      "å¾®": 1767,
      "ä¸ĢèĪ¬": 1768,
      "å®ĮåĸĦ": 1769,
      "åħ¸": 1770,
      "åĪ©çĽĬ": 1771,
      "åıĳçİ°": 1772,
      "mal": 1773,
      "è¯¸": 1774,
      "ä¸ĢäºĽ": 1775,
      "çº²": 1776,
      "äº¡": 1777,
      "æį¢": 1778,
      "èĭ±": 1779,
      "ä¸Ģå®ļ": 1780,
      "21": 1781,
      "ä¸»ä½ĵ": 1782,
      "åĲ«": 1783,
      "èµĦæľ¬": 1784,
      "ç´¢": 1785,
      "è¯¾ç¨ĭ": 1786,
      "æŀĹ": 1787,
      "èĭ¥": 1788,
      "æķĻå¸Ī": 1789,
      "å¡": 1790,
      "é¥": 1791,
      "amp": 1792,
      "å¢ŀåĬł": 1793,
      "mat": 1794,
      "äºĪ": 1795,
      "æ³ķéĻ¢": 1796,
      "æĦıä¹ī": 1797,
      "æĺİç¡®": 1798,
      "åįķä½į": 1799,
      "è½¦": 1800,
      "ç¦ı": 1801,
      "br": 1802,
      "é£Ł": 1803,
      "å¯¼èĩ´": 1804,
      "å¤§åĲį": 1805,
      "æľīåħ³": 1806,
      "æŁĵ": 1807,
      "der": 1808,
      "trans": 1809,
      "è¿Ľåħ¥": 1810,
      "éĩįå¤§": 1811,
      "èİ·å¾Ĺ": 1812,
      "éĢīæĭ©": 1813,
      "cent": 1814,
      "è®Ń": 1815,
      "åĪĳ": 1816,
      "éľĢæ±Ĥ": 1817,
      "æī§è¡Į": 1818,
      "æĹ¢": 1819,
      "æµĵ": 1820,
      "50": 1821,
      "éĿ©åĳ½": 1822,
      "ç§¯æŀģ": 1823,
      "çĥŃ": 1824,
      "å·¥ä¸ļ": 1825,
      "æľĽ": 1826,
      "æķĮ": 1827,
      "æı¡": 1828,
      "ren": 1829,
      "åħ¨çĲĥ": 1830,
      "mun": 1831,
      "ä»Ģ": 1832,
      "æĮģç»Ń": 1833,
      "lu": 1834,
      "ç»Ŀ": 1835,
      "olog": 1836,
      "incre": 1837,
      "..": 1838,
      "ä¸°èĩ£": 1839,
      "unc": 1840,
      "è¿Ľä¸ĢæŃ¥": 1841,
      "åį±": 1842,
      "prote": 1843,
      "af": 1844,
      "det": 1845,
      "çĦ¶èĢĮ": 1846,
      "ins": 1847,
      "äººç±»": 1848,
      "éĵ¾": 1849,
      "æĤ£": 1850,
      "çĬ¯": 1851,
      "ong": 1852,
      "èĮĥåĽ´": 1853,
      "enti": 1854,
      "æıĲåįĩ": 1855,
      "alth": 1856,
      "ä¹ĭåĲİ": 1857,
      "ween": 1858,
      "éĵ¶": 1859,
      "è´¸": 1860,
      "used": 1861,
      "è¯Ħä»·": 1862,
      "000": 1863,
      "ç©ºéĹ´": 1864,
      "èĥĮ": 1865,
      "å°Ħ": 1866,
      "æ¹": 1867,
      "å»¶": 1868,
      "ä¹Ĳ": 1869,
      "å°ĨåĨĽ": 1870,
      "level": 1871,
      "æīĢä»¥": 1872,
      "ãĢĢ": 1873,
      "é©¬åħĭ": 1874,
      "ç«¯": 1875,
      "ub": 1876,
      "å¦Ĥä½ķ": 1877,
      "between": 1878,
      "éĴĪ": 1879,
      "å½ĵæĹ¶": 1880,
      "fi": 1881,
      "å¼Ģåıĳ": 1882,
      "èĹı": 1883,
      "è¿Ŀ": 1884,
      "åħ³éĶ®": 1885,
      "é¢Ŀ": 1886,
      "è¯»": 1887,
      "å®£": 1888,
      "å®«": 1889,
      "äººæīį": 1890,
      "è¿Ļæł·": 1891,
      "ç¡®å®ļ": 1892,
      "åı³": 1893,
      "24": 1894,
      "ç¨ĭåºı": 1895,
      "å¢ŀéķ¿": 1896,
      "å°Ķ": 1897,
      "é²": 1898,
      "ä»Ģä¹Ī": 1899,
      "é©¬åħĭæĢĿ": 1900,
      "å¤§åŃ¦": 1901,
      "åĢŁ": 1902,
      "èı": 1903,
      "ç»¼åĲĪ": 1904,
      "arg": 1905,
      "å¼ĢæĶ¾": 1906,
      "å¸ģ": 1907,
      "çĮ®": 1908,
      "group": 1909,
      "äºĳ": 1910,
      "using": 1911,
      "ç¿": 1912,
      "è§ī": 1913,
      "æİª": 1914,
      "expression": 1915,
      "çİ°ä»£åĮĸ": 1916,
      "other": 1917,
      "ip": 1918,
      "æĿĥåĪ©": 1919,
      "ç«ŀ": 1920,
      "çīĪ": 1921,
      "è´º": 1922,
      "ep": 1923,
      "ection": 1924,
      "has": 1925,
      "dies": 1926,
      "çĶº": 1927,
      "respon": 1928,
      "wo": 1929,
      "æ¶ī": 1930,
      "èĬ±": 1931,
      "å¥ī": 1932,
      "æ½": 1933,
      "åĽłç´ł": 1934,
      "les": 1935,
      "å¾ħ": 1936,
      "çĶŁçī©": 1937,
      "ä¸¤ä¸ª": 1938,
      "è¡¨çİ°": 1939,
      "äº¬éĥ½": 1940,
      "signific": 1941,
      "also": 1942,
      "cur": 1943,
      "åĪ»": 1944,
      "æ¸¸": 1945,
      "des": 1946,
      "22": 1947,
      "ors": 1948,
      "å¼Ģå±ķ": 1949,
      "åıĳæĮ¥": 1950,
      "may": 1951,
      "ight": 1952,
      "ates": 1953,
      "è®²": 1954,
      "peri": 1955,
      "ç»ıèĲ¥": 1956,
      "åĨ²": 1957,
      "cal": 1958,
      "çģ«": 1959,
      "å®ŀéªĮ": 1960,
      "resul": 1961,
      "èģļ": 1962,
      "çĨ": 1963,
      "man": 1964,
      "ä»»åĬ¡": 1965,
      "æĦ¿": 1966,
      "ke": 1967,
      "int": 1968,
      "åįĬ": 1969,
      "çī¹å¾ģ": 1970,
      "mul": 1971,
      "åģ¿": 1972,
      "ms": 1973,
      "åºķ": 1974,
      "æĸĩæĺİ": 1975,
      "ected": 1976,
      "data": 1977,
      "æı´": 1978,
      "åħħåĪĨ": 1979,
      "åĢĻ": 1980,
      "æİĪ": 1981,
      "æ¤": 1982,
      "ä¼°": 1983,
      "å£°": 1984,
      "åıĬåħ¶": 1985,
      "åħ±äº§": 1986,
      "æĻ´": 1987,
      "inv": 1988,
      "duc": 1989,
      "these": 1990,
      "è¡¡": 1991,
      "ä¹ĭä¸Ģ": 1992,
      "car": 1993,
      "dise": 1994,
      "uld": 1995,
      "çīĩ": 1996,
      "åĲĦç§į": 1997,
      "åĽŃ": 1998,
      "è®¡åĪĴ": 1999,
      "äºĮåįģ": 2000,
      "åħ¬åħ±": 2001,
      "åĮºåŁŁ": 2002,
      "ä¸įä»ħ": 2003,
      "åħ¼": 2004,
      "å®ĪæĬ¤": 2005,
      "è¿Ļä¸Ģ": 2006,
      "tis": 2007,
      "å®ª": 2008,
      "åĨľæĿĳ": 2009,
      "ç¨³å®ļ": 2010,
      "been": 2011,
      "valu": 2012,
      "éĻ·": 2013,
      "ç¬¦": 2014,
      "ç¾½": 2015,
      "è§ĦèĮĥ": 2016,
      "CD": 2017,
      "éĻĦ": 2018,
      "æĻºèĥ½": 2019,
      "æ¼Ķ": 2020,
      "åľŁåľ°": 2021,
      "è½»": 2022,
      "éĻĨ": 2023,
      "cr": 2024,
      "æĪĲæľ¬": 2025,
      "treat": 2026,
      "ä¸ĸçºª": 2027,
      "æĲ": 2028,
      "è§Ħæ¨¡": 2029,
      "å°ļ": 2030,
      "ugh": 2031,
      "ies": 2032,
      "åĽ°": 2033,
      "éŁ³": 2034,
      "ech": 2035,
      "çĶļ": 2036,
      "çĽ®çļĦ": 2037,
      "ual": 2038,
      "sur": 2039,
      "åłĤ": 2040,
      "éĶĢ": 2041,
      "åľ°ä½į": 2042,
      "åıĸå¾Ĺ": 2043,
      "significant": 2044,
      "23": 2045,
      "è®¤è¯Ĩ": 2046,
      "ces": 2047,
      "éī": 2048,
      "åĬ¿åĬĽ": 2049,
      "éī´": 2050,
      "bi": 2051,
      "æ¶Īè´¹": 2052,
      "é¼": 2053,
      "éĢģ": 2054,
      "stem": 2055,
      "ä¼¼": 2056,
      "incl": 2057,
      "ç»ĩçĶ°ä¿¡éķ¿": 2058,
      "sed": 2059,
      "ç£": 2060,
      "èģĮä¸ļ": 2061,
      "æ¯į": 2062,
      "gene": 2063,
      "å«": 2064,
      "å²ģ": 2065,
      "ä»İèĢĮ": 2066,
      "more": 2067,
      "æľĢç»Ī": 2068,
      "åŁºäºİ": 2069,
      "æ¨¡åŀĭ": 2070,
      "çī¹åĪ«": 2071,
      "å®ĮæĪĲ": 2072,
      "ack": 2073,
      "éĿĴ": 2074,
      "è£ģ": 2075,
      "æĺ¯åĲ¦": 2076,
      "associ": 2077,
      "æİĮ": 2078,
      "por": 2079,
      "è¿ĳå¹³": 2080,
      "ä¹łè¿ĳå¹³": 2081,
      "æĵį": 2082,
      "éĿł": 2083,
      "vari": 2084,
      "æĦıè¯Ĩ": 2085,
      "æĴŃ": 2086,
      "ç±³": 2087,
      "æĬµ": 2088,
      "lic": 2089,
      "èµĦäº§": 2090,
      "ç¨ĭåº¦": 2091,
      "ä»¥æĿ¥": 2092,
      "å±ĭ": 2093,
      "contro": 2094,
      "æľºåħ³": 2095,
      "åŃ¦æł¡": 2096,
      "åĲ¸": 2097,
      "éĩįçĤ¹": 2098,
      "åºŃ": 2099,
      "å¨ģ": 2100,
      "ases": 2101,
      "ility": 2102,
      "æ¦Ĥå¿µ": 2103,
      "é¾Ļ": 2104,
      "158": 2105,
      "40": 2106,
      "æīĺ": 2107,
      "è´¸æĺĵ": 2108,
      "å¹³åı°": 2109,
      "åºĵ": 2110,
      "è°·": 2111,
      "sti": 2112,
      "å°¼": 2113,
      "æĿĲæĸĻ": 2114,
      "çĶ³": 2115,
      "cul": 2116,
      "è§ĦåĪĴ": 2117,
      "éĩĩçĶ¨": 2118,
      "ects": 2119,
      "çĽŁ": 2120,
      "èĨ": 2121,
      "é¡º": 2122,
      "ting": 2123,
      "stu": 2124,
      "func": 2125,
      "ä¼Ł": 2126,
      "velop": 2127,
      "çĽ®åīį": 2128,
      "æŀĦå»º": 2129,
      "ç«ŀäºī": 2130,
      "åĪĽéĢł": 2131,
      "æ¸©": 2132,
      "éļıçĿĢ": 2133,
      "present": 2134,
      "æ°ĳä¸»": 2135,
      "tional": 2136,
      "than": 2137,
      "cep": 2138,
      "RNA": 2139,
      "CA": 2140,
      "its": 2141,
      "æĺ¥": 2142,
      "æ¯Ķè¾ĥ": 2143,
      "ä¼¤": 2144,
      "ä½ĵçİ°": 2145,
      "åį°": 2146,
      "è¶³åĪ©ä¹ī": 2147,
      "çĲĨè§£": 2148,
      "è®¼": 2149,
      "æĮĩå¯¼": 2150,
      "treatment": 2151,
      "éĺ³": 2152,
      "çĪ±": 2153,
      "âĪ": 2154,
      "åĪ¶å®ļ": 2155,
      "åħ±äº§åħļ": 2156,
      "å¤«": 2157,
      "åĤ¨": 2158,
      "over": 2159,
      "ating": 2160,
      "ç¢³": 2161,
      "å¾Ħ": 2162,
      "æĮĩåĩº": 2163,
      "our": 2164,
      "æĹ§": 2165,
      "èĻİ": 2166,
      "åĪ¶éĢł": 2167,
      "sup": 2168,
      "äºļ": 2169,
      "éģŃ": 2170,
      "âĳ": 2171,
      "è¿ĲåĬ¨": 2172,
      "è¾ī": 2173,
      "çĶ»": 2174,
      "æ±ł": 2175,
      "157": 2176,
      "èĻ½çĦ¶": 2177,
      "ç»ıéªĮ": 2178,
      "èĻĳ": 2179,
      "ä½ĵåĪ¶": 2180,
      "ç´§": 2181,
      "è¾¾åĪ°": 2182,
      "è¯īè®¼": 2183,
      "è´«": 2184,
      "ard": 2185,
      "ris": 2186,
      "###": 2187,
      "ä»¥ä¸Ĭ": 2188,
      "çĻ»": 2189,
      "è°ĭ": 2190,
      "æĬ¥åĳĬ": 2191,
      "çģŃ": 2192,
      "å¹¸": 2193,
      "path": 2194,
      "çĸ«": 2195,
      "èĴ": 2196,
      "60": 2197,
      "æĹłæ³ķ": 2198,
      "æĸ¹åĲĳ": 2199,
      "é»ĳ": 2200,
      "å§Ķåĳĺ": 2201,
      "ple": 2202,
      "ç»Ĩå·Ŀ": 2203,
      "met": 2204,
      "èĥ½æºĲ": 2205,
      "wor": 2206,
      "è´Łè´£": 2207,
      "æ±ī": 2208,
      "å®½": 2209,
      "vir": 2210,
      "develop": 2211,
      "è´ŀ": 2212,
      "éĢĥ": 2213,
      "æĭ¥": 2214,
      "æ¸Ĳ": 2215,
      "éķ¿æľŁ": 2216,
      "éļĲ": 2217,
      "æ³ķæ²»": 2218,
      "clin": 2219,
      "This": 2220,
      "éĢłæĪĲ": 2221,
      "çĽĳçĿ£": 2222,
      "æĮīçħ§": 2223,
      "æ³½": 2224,
      "æİªæĸ½": 2225,
      "mi": 2226,
      "æł¹æľ¬": 2227,
      "äººä»¬": 2228,
      "çº¢": 2229,
      "éĺ¿": 2230,
      "è´¯": 2231,
      "èĩªçĶ±": 2232,
      "æĶ¶åħ¥": 2233,
      "åĬĽéĩı": 2234,
      "èĹ©": 2235,
      "å®ĩ": 2236,
      "æĢ¥": 2237,
      "éĵģ": 2238,
      "çŁŃ": 2239,
      "å°Ĭ": 2240,
      "åİŁåĽł": 2241,
      "ä»¥ä¸ĭ": 2242,
      "åºĦ": 2243,
      "è¡Įä¸ļ": 2244,
      "We": 2245,
      "ree": 2246,
      "éĶĻ": 2247,
      "é¸": 2248,
      "èĢĮä¸Ķ": 2249,
      "ä¼ĺåĬ¿": 2250,
      "immun": 2251,
      "æĿŁ": 2252,
      "äº¤æĺĵ": 2253,
      "è¯į": 2254,
      "éĢĶ": 2255,
      "çĽ¸å¯¹": 2256,
      "å¤©æĸĩ": 2257,
      "analysis": 2258,
      "è´Ń": 2259,
      "ä¾§": 2260,
      "æĽ´åĬł": 2261,
      "åĽ½åĨħ": 2262,
      "ä¸Ģæĸ¹éĿ¢": 2263,
      "çī¹çĤ¹": 2264,
      "model": 2265,
      "100": 2266,
      "æĭī": 2267,
      "è¡¨ç¤º": 2268,
      "å¼ºè°ĥ": 2269,
      "ç¹": 2270,
      "ç»¿": 2271,
      "é©¬åħĭæĢĿä¸»ä¹ī": 2272,
      "æ²»çĸĹ": 2273,
      "ra": 2274,
      "åĿĤ": 2275,
      "ä¾ĭå¦Ĥ": 2276,
      "ãĤ": 2277,
      "ses": 2278,
      "å½¹": 2279,
      "é¢Ĩåľ°": 2280,
      "åıªæľī": 2281,
      "æķ£": 2282,
      "ç¹ģ": 2283,
      "éº": 2284,
      "çĭ¬ç«ĭ": 2285,
      "æ¤į": 2286,
      "çı": 2287,
      "è®¾å¤ĩ": 2288,
      "ç§ģ": 2289,
      "ca": 2290,
      "æ¯Ĵ": 2291,
      "éģ¿": 2292,
      "çİĦ": 2293,
      "åģ¥åº·": 2294,
      "èĦ±": 2295,
      "èĽ": 2296,
      "åĬ±": 2297,
      "ew": 2298,
      "å³": 2299,
      "æŀ¶": 2300,
      "28": 2301,
      "åĿĹ": 2302,
      "å¤©çļĩ": 2303,
      "åıĹåĪ°": 2304,
      "å©": 2305,
      "æ°¸ç¦Ħ": 2306,
      "27": 2307,
      "å¥ĭ": 2308,
      "æĪĲæŀľ": 2309,
      "ely": 2310,
      "å¼ĺ": 2311,
      "blo": 2312,
      "studies": 2313,
      "factor": 2314,
      "è¯¯": 2315,
      "sec": 2316,
      "æĤ£èĢħ": 2317,
      "disease": 2318,
      "æĸ¹æ¡Ī": 2319,
      "their": 2320,
      "æ³Ľ": 2321,
      "å»ºçŃĳ": 2322,
      "åŃ¦ç§ĳ": 2323,
      "çĹĩ": 2324,
      "ç§°ä¸º": 2325,
      "åĨħéĥ¨": 2326,
      "ä»»ä½ķ": 2327,
      "éĨ": 2328,
      "fol": 2329,
      "æ±¡": 2330,
      "å¾ª": 2331,
      "ä»Ĭå·Ŀ": 2332,
      "control": 2333,
      "å¾·å·Ŀå®¶åº·": 2334,
      "ments": 2335,
      "but": 2336,
      "è§£éĩĬ": 2337,
      "çĬ¶æĢģ": 2338,
      "å®Įåħ¨": 2339,
      "hib": 2340,
      "ç¾¤ä¼Ĺ": 2341,
      "lec": 2342,
      "å¢ŀå¼º": 2343,
      "é¢ĳ": 2344,
      "ä¸¸": 2345,
      "åĲĪçĲĨ": 2346,
      "wn": 2347,
      "cess": 2348,
      "æ¬§": 2349,
      "èµ·æĿ¥": 2350,
      "è°Ī": 2351,
      "è¡ĮåĬ¨": 2352,
      "Â±": 2353,
      "æĵįä½ľ": 2354,
      "CT": 2355,
      "90": 2356,
      "å±ŀäºİ": 2357,
      "æŀĦæĪĲ": 2358,
      "health": 2359,
      "äºĭä»¶": 2360,
      "ä¼Ĳ": 2361,
      "ç«Ļ": 2362,
      "ç¯": 2363,
      "ulation": 2364,
      "è¿ĺæĺ¯": 2365,
      "çº·": 2366,
      "tum": 2367,
      "cri": 2368,
      "act": 2369,
      "after": 2370,
      "26": 2371,
      "å¯¹è±¡": 2372,
      "ç»§ç»Ń": 2373,
      "ä¿Ŀè¯ģ": 2374,
      "è®¸å¤ļ": 2375,
      "ç½Ĺ": 2376,
      "dec": 2377,
      "æĺĮ": 2378,
      "80": 2379,
      "é²ľ": 2380,
      "ber": 2381,
      "under": 2382,
      "æ´²": 2383,
      "åºĶè¯¥": 2384,
      "åı¸æ³ķ": 2385,
      "æŃ¤å¤ĸ": 2386,
      "au": 2387,
      "å¤º": 2388,
      "ä¼Łå¤§": 2389,
      "å±±åŁİ": 2390,
      "åĨĪ": 2391,
      "äºĭå®ŀ": 2392,
      "èīºæľ¯": 2393,
      "å²Ľæ´¥": 2394,
      "ist": 2395,
      "éĵ¶è¡Į": 2396,
      "æľªæĿ¥": 2397,
      "æľĢåĲİ": 2398,
      "æĪĲåĬŁ": 2399,
      "çĶļèĩ³": 2400,
      "äº¿": 2401,
      "èģĶç½ĳ": 2402,
      "ays": 2403,
      "å¼±": 2404,
      "è¿«": 2405,
      "æĭħä»»": 2406,
      "å¤įæĿĤ": 2407,
      "è½¯": 2408,
      "å±¥": 2409,
      "èĢĥèĻĳ": 2410,
      "æĺŁ": 2411,
      "èĭı": 2412,
      "æŃ¦å°Ĩ": 2413,
      "protein": 2414,
      "system": 2415,
      "èĩªèº«": 2416,
      "includ": 2417,
      "æĭŁ": 2418,
      "ä¸ļåĬ¡": 2419,
      "è¾ĳ": 2420,
      "uring": 2421,
      "ç»ĦæĪĲ": 2422,
      "æ±ĩ": 2423,
      "åħĦ": 2424,
      "requ": 2425,
      "éģĩ": 2426,
      "éĩĩåıĸ": 2427,
      "çĶµåŃĲ": 2428,
      "ä¸¥éĩį": 2429,
      "çİ°å®ŀ": 2430,
      "å®¶çĿ£": 2431,
      "èģĶåĲĪ": 2432,
      "æľĢå¤§": 2433,
      "çĽ¾": 2434,
      "çĽ¸äºĴ": 2435,
      "fic": 2436,
      "éĺ»": 2437,
      "æ¥": 2438,
      "èĪ¹": 2439,
      "å·¨": 2440,
      "æķĳ": 2441,
      "æĪĺäºī": 2442,
      "meth": 2443,
      "åĲİæĿ¥": 2444,
      "æĿĥåĬĽ": 2445,
      "os": 2446,
      "ä¼ļè®®": 2447,
      "è¯Ħä¼°": 2448,
      "çī©è´¨": 2449,
      "éĹ»": 2450,
      "tes": 2451,
      "éĢĤçĶ¨": 2452,
      "è¶ĭ": 2453,
      "cancer": 2454,
      "æĶ¹åıĺ": 2455,
      "ä¸ŃåĽ½åħ±äº§åħļ": 2456,
      "è¿Ļæĺ¯": 2457,
      "èĻļ": 2458,
      "ared": 2459,
      "åĨľæ°ĳ": 2460,
      "åģĩ": 2461,
      "clinical": 2462,
      "éģĤ": 2463,
      "çĸĳ": 2464,
      "av": 2465,
      "æīįèĥ½": 2466,
      "è¿ĲçĶ¨": 2467,
      "è´¢äº§": 2468,
      "ä¹İ": 2469,
      "æī¿æĭħ": 2470,
      "tho": 2471,
      "è®¢": 2472,
      "dep": 2473,
      "col": 2474,
      "ä¹īåĬ¡": 2475,
      "æľ«": 2476,
      "ç»ĥ": 2477,
      "å´İ": 2478,
      "æİ¥åıĹ": 2479,
      "åĲ¯": 2480,
      "å§Ķåĳĺä¼ļ": 2481,
      "æŁ´": 2482,
      "oc": 2483,
      "âĪĴ": 2484,
      "æ±ŁæĪ·": 2485,
      "è°±": 2486,
      "uced": 2487,
      "è´§å¸ģ": 2488,
      "è°ĵ": 2489,
      "29": 2490,
      "æĪĺåĽ½æĹ¶ä»£": 2491,
      "å§ĵ": 2492,
      "time": 2493,
      "æĪĲç«ĭ": 2494,
      "è¯Ńè¨Ģ": 2495,
      "ç»´æĬ¤": 2496,
      "å¸®": 2497,
      "genes": 2498,
      "èģĶç³»": 2499,
      "æľŁéĹ´": 2500,
      "äºĭä¸ļ": 2501,
      "levels": 2502,
      "å¤§éĩı": 2503,
      "æĺł": 2504,
      "vely": 2505,
      "èĦĳ": 2506,
      "çĬ¯ç½ª": 2507,
      "rec": 2508,
      "lin": 2509,
      "é¦Ĩ": 2510,
      "åīĤ": 2511,
      "æ··": 2512,
      "ä¿ĿæĮģ": 2513,
      "nor": 2514,
      "èįī": 2515,
      "such": 2516,
      "è°ĥæķ´": 2517,
      "ä¸įåı¯": 2518,
      "è®¿": 2519,
      "ered": 2520,
      "ures": 2521,
      "éĴĪå¯¹": 2522,
      "associated": 2523,
      "çŁĽ": 2524,
      "earch": 2525,
      "çŃĶ": 2526,
      "å½ĵäºĭ": 2527,
      "é¦ĸåħĪ": 2528,
      "ä¿ĿéĻ©": 2529,
      "åĲ¬": 2530,
      "éĿŀå¸¸": 2531,
      "è®¾æĸ½": 2532,
      "156": 2533,
      "èĢĮæĺ¯": 2534,
      "çĶ·": 2535,
      "ä½ľåĩº": 2536,
      "é»Ħ": 2537,
      "æİ¢ç´¢": 2538,
      "åºĨéķ¿": 2539,
      "ail": 2540,
      "åĩıå°ĳ": 2541,
      "æĺİæĺ¾": 2542,
      "è¿Ĳè¡Į": 2543,
      "æİĮæı¡": 2544,
      "Ho": 2545,
      "åĬłå¿«": 2546,
      "meas": 2547,
      "åŃĻ": 2548,
      "åįļ": 2549,
      "çĶ¨äºİ": 2550,
      "æĽ²": 2551,
      "å½ĵäºĭäºº": 2552,
      "æµħ": 2553,
      "çĲĨå¿µ": 2554,
      "éĻįä½İ": 2555,
      "å¥¥": 2556,
      "ç¤¼": 2557,
      "åĨĽäºĭ": 2558,
      "æ·±åħ¥": 2559,
      "èŀįåĲĪ": 2560,
      "pop": 2561,
      "çľ¼": 2562,
      "gener": 2563,
      "ä¾Ŀæį®": 2564,
      "æ¡Īä»¶": 2565,
      "two": 2566,
      "çŁĽçĽ¾": 2567,
      "æĴ¤": 2568,
      "è¯·æ±Ĥ": 2569,
      "hum": 2570,
      "äººæ°ĳæ³ķéĻ¢": 2571,
      "identi": 2572,
      "éĽĨä¸Ń": 2573,
      "ä¹¡æĿĳ": 2574,
      "åı¶": 2575,
      "çĸ¾": 2576,
      "ties": 2577,
      "ge": 2578,
      "åĨ³çŃĸ": 2579,
      "tal": 2580,
      "both": 2581,
      "èµĦéĩĳ": 2582,
      "199": 2583,
      "èº«ä»½": 2584,
      "ä½ł": 2585,
      "åĲĽ": 2586,
      "åŁºåĽł": 2587,
      "æĿ¿": 2588,
      "åħ³ä¸ľ": 2589,
      "æīĭæ®µ": 2590,
      "å¹¶ä¸Ķ": 2591,
      "ä¸įå¾Ĺ": 2592,
      "ç±»åŀĭ": 2593,
      "ç»Łæ²»": 2594,
      "è±«": 2595,
      "è¯Ĺ": 2596,
      "æłĳ": 2597,
      "ox": 2598,
      "æŃ¦å£«": 2599,
      "ble": 2600,
      "ä»¥åĲİ": 2601,
      "ç½ļ": 2602,
      "medi": 2603,
      "chang": 2604,
      "å¤§åĨħ": 2605,
      "ized": 2606,
      "risk": 2607,
      "acter": 2608,
      "35": 2609,
      "å½»": 2610,
      "åįģäºĮ": 2611,
      "partic": 2612,
      "ish": 2613,
      "results": 2614,
      "æķ´ä½ĵ": 2615,
      "å²©": 2616,
      "çģµ": 2617,
      "tial": 2618,
      "will": 2619,
      "SC": 2620,
      "ç¥ĸ": 2621,
      "ability": 2622,
      "appro": 2623,
      "è¾ħ": 2624,
      "work": 2625,
      "ç¬Ķ": 2626,
      "çĺ": 2627,
      "GF": 2628,
      "åĵ²": 2629,
      "äººåı£": 2630,
      "specific": 2631,
      "ak": 2632,
      "è´µ": 2633,
      "éħ¸": 2634,
      "çĽĳç®¡": 2635,
      "äºİæĺ¯": 2636,
      "æĮ¯": 2637,
      "åĸľ": 2638,
      "sing": 2639,
      "æ¶²": 2640,
      "é£ŀ": 2641,
      "æķĪçİĩ": 2642,
      "non": 2643,
      "è¿Ķ": 2644,
      "åķĨä¸ļ": 2645,
      "åħĥå¹´": 2646,
      "ï¼İ": 2647,
      "çłģ": 2648,
      "esti": 2649,
      "fir": 2650,
      "æĦıè§ģ": 2651,
      "ding": 2652,
      "ture": 2653,
      "wever": 2654,
      "ä¾Ŀæ³ķ": 2655,
      "åģľ": 2656,
      "num": 2657,
      "å¹¿æ³Ľ": 2658,
      "æ²¿": 2659,
      "SA": 2660,
      "70": 2661,
      "therap": 2662,
      "å°¤": 2663,
      "äºĨè§£": 2664,
      "æŃ¤æĹ¶": 2665,
      "æ£®": 2666,
      "å¹¼": 2667,
      "ç»ıè¿ĩ": 2668,
      "åģı": 2669,
      "åıĮæĸ¹": 2670,
      "åĪĨéħį": 2671,
      "inhib": 2672,
      "ä¼ĺåĮĸ": 2673,
      "åıįåºĶ": 2674,
      "ä¹°": 2675,
      "å¸Į": 2676,
      "ç¦ģ": 2677,
      "âĢ¦": 2678,
      "çİ°è±¡": 2679,
      "ark": 2680,
      "ä¸īå¥½": 2681,
      "ss": 2682,
      "ä¹¦è®°": 2683,
      "æıı": 2684,
      "tern": 2685,
      "åºĬ": 2686,
      "æ®¿": 2687,
      "çĪ¶äº²": 2688,
      "ons": 2689,
      "è°ĥæŁ¥": 2690,
      "II": 2691,
      "è®°è½½": 2692,
      "ä¸īå¹´": 2693,
      "trib": 2694,
      "mice": 2695,
      "æ¾": 2696,
      "æŃ£ç¡®": 2697,
      "sh": 2698,
      "posi": 2699,
      "ä¸įè¿ĩ": 2700,
      "ä»·æł¼": 2701,
      "åįıè°ĥ": 2702,
      "åįıè®®": 2703,
      "è§ĦåĪĻ": 2704,
      "åĪĨåĪ«": 2705,
      "ç½²": 2706,
      "å¸¦æĿ¥": 2707,
      "ç³»åĪĹ": 2708,
      "çĶ³è¯·": 2709,
      "å¸Ŀ": 2710,
      "ants": 2711,
      "è¢Ń": 2712,
      "éģĵè·¯": 2713,
      "è¯ģæĺİ": 2714,
      "ç¬¦åĲĪ": 2715,
      "èµĲ": 2716,
      "è´·": 2717,
      "è¦ģç´ł": 2718,
      "è´¢æĶ¿": 2719,
      "èĪª": 2720,
      "éķ°": 2721,
      "ä»ģ": 2722,
      "ond": 2723,
      "tical": 2724,
      "éĻĲåĪ¶": 2725,
      "æĹĹ": 2726,
      "çĵ": 2727,
      "è·¨": 2728,
      "å¼ķå¯¼": 2729,
      "gg": 2730,
      "è¿ģ": 2731,
      "St": 2732,
      "into": 2733,
      "è§Ħå¾ĭ": 2734,
      "èĦī": 2735,
      "æī¾": 2736,
      "åľ¨äºİ": 2737,
      "ç«¥": 2738,
      "follow": 2739,
      "inding": 2740,
      "åı¬": 2741,
      "æĢĿç»´": 2742,
      "è¿ĽæĶ»": 2743,
      "åħ³æ³¨": 2744,
      "æ®Ĭ": 2745,
      "depend": 2746,
      "é¹": 2747,
      "åİ»ä¸ĸ": 2748,
      "æ°§": 2749,
      "ile": 2750,
      "æĮĳ": 2751,
      "å¤§åıĭ": 2752,
      "ä¿¡çİĦ": 2753,
      "éĢļå¸¸": 2754,
      "çĥĪ": 2755,
      "sequ": 2756,
      "samp": 2757,
      "é¼ĵ": 2758,
      "ç«¹": 2759,
      "å±¥è¡Į": 2760,
      "çĽĸ": 2761,
      "æ¦Ĥè¦ģ": 2762,
      "åĲĮå¹´": 2763,
      "å»·": 2764,
      "year": 2765,
      "dr": 2766,
      "ater": 2767,
      "ç»¿èī²": 2768,
      "IL": 2769,
      "sen": 2770,
      "åį·": 2771,
      "æľĢé«ĺ": 2772,
      "åĢºåĬ¡": 2773,
      "test": 2774,
      "è¯ģæį®": 2775,
      "éĢĤåºĶ": 2776,
      "å¼ºåĮĸ": 2777,
      "ev": 2778,
      "kno": 2779,
      "activity": 2780,
      "æī©å¤§": 2781,
      "during": 2782,
      "obser": 2783,
      "è¯¦": 2784,
      "found": 2785,
      "æ¸¯": 2786,
      "well": 2787,
      "DNA": 2788,
      "indic": 2789,
      "è·Ŀ": 2790,
      "çĶ¨æĪ·": 2791,
      "éĽĦ": 2792,
      "æ´Ľ": 2793,
      "åķĨåĵģ": 2794,
      "æ¡¥": 2795,
      "è´¡": 2796,
      "åıįæĺł": 2797,
      "ç§ĭ": 2798,
      "è¡¨è¾¾": 2799,
      "experi": 2800,
      "æ»¡è¶³": 2801,
      "æķ´ä¸ª": 2802,
      "å¦»": 2803,
      "different": 2804,
      "ä¸¹": 2805,
      "ign": 2806,
      "åĵ²åŃ¦": 2807,
      "ite": 2808,
      "ä»ª": 2809,
      "amin": 2810,
      "æĶ»åĩ»": 2811,
      "formed": 2812,
      "æķĪæŀľ": 2813,
      "AT": 2814,
      "æĺŃ": 2815,
      "è§ĤçĤ¹": 2816,
      "åıĤåĬł": 2817,
      "each": 2818,
      "è¡¨æĺİ": 2819,
      "ä¸Ńåįİæ°ĳæĹı": 2820,
      "æ¶īåıĬ": 2821,
      "An": 2822,
      "éª¨": 2823,
      "æĿİ": 2824,
      "formation": 2825,
      "ill": 2826,
      "æ´ĭ": 2827,
      "éģį": 2828,
      "ue": 2829,
      "çŃ¹": 2830,
      "æŃĮ": 2831,
      "å¿ĥçĲĨ": 2832,
      "æģ¶": 2833,
      "éĢĲæ¸Ĳ": 2834,
      "åįģåħ«": 2835,
      "èĤ¥": 2836,
      "ained": 2837,
      "micro": 2838,
      "é¡¾": 2839,
      "æĸĭ": 2840,
      "éķ°ä»ĵ": 2841,
      "åĶ¯": 2842,
      "ç¼©": 2843,
      "95": 2844,
      "åŃĿ": 2845,
      "åĶ®": 2846,
      "æĽ¿": 2847,
      "ç»©": 2848,
      "èĽĭ": 2849,
      "èį£": 2850,
      "Ch": 2851,
      "33": 2852,
      "éģĵå¾·": 2853,
      "å½ĵåīį": 2854,
      "èµ¤": 2855,
      "è°¦": 2856,
      "å¿ħè¦ģ": 2857,
      "atic": 2858,
      "function": 2859,
      "ç«ĭæ³ķ": 2860,
      "åª": 2861,
      "ological": 2862,
      "æĳĦ": 2863,
      "åºŁ": 2864,
      "uro": 2865,
      "æ³¨æĦı": 2866,
      "å®ĥä»¬": 2867,
      "å¼ĥ": 2868,
      "èŃ": 2869,
      "å·¥åħ·": 2870,
      "éĢı": 2871,
      "ä¼ı": 2872,
      "ust": 2873,
      "å½¢æĢģ": 2874,
      "çŃ¾": 2875,
      "è¿İ": 2876,
      "è®°å½ķ": 2877,
      "è¯´æĺİ": 2878,
      "æĿ¥è¯´": 2879,
      "æ½ľ": 2880,
      "æ³ķè§Ħ": 2881,
      "åĮ»çĸĹ": 2882,
      "tissu": 2883,
      "ced": 2884,
      "åº§": 2885,
      "most": 2886,
      "sugg": 2887,
      "åĳ³": 2888,
      "æĸĩä»¶": 2889,
      "vers": 2890,
      "ç»į": 2891,
      "AP": 2892,
      "normal": 2893,
      "åĪĨåŃĲ": 2894,
      "comple": 2895,
      "åĳĪ": 2896,
      "æ¸¡": 2897,
      "ä½Ľ": 2898,
      "syn": 2899,
      "36": 2900,
      "increased": 2901,
      "ric": 2902,
      "45": 2903,
      "äºĴèģĶç½ĳ": 2904,
      "ç²®": 2905,
      "å¹´ä»£": 2906,
      "è·Ł": 2907,
      "inal": 2908,
      "æĶ¿æĿĥ": 2909,
      "37": 2910,
      "çĨŁ": 2911,
      "struc": 2912,
      "human": 2913,
      "ä¸ĢçĽ´": 2914,
      "å¼ķèµ·": 2915,
      "ä»ķ": 2916,
      "Co": 2917,
      "å®ŀè¡Į": 2918,
      "åĭĩ": 2919,
      "ild": 2920,
      "related": 2921,
      "åįģä¸Ģ": 2922,
      "ys": 2923,
      "è¥¿æĸ¹": 2924,
      "éĢ»": 2925,
      "ese": 2926,
      "had": 2927,
      "èĢĮè¨Ģ": 2928,
      "èĲ½å®ŀ": 2929,
      "who": 2930,
      "cle": 2931,
      "ä¸īä¸ª": 2932,
      "çº¯": 2933,
      "é«ĺåº¦": 2934,
      "äº¤éĢļ": 2935,
      "ç¬¬åĽĽ": 2936,
      "æĢ§è´¨": 2937,
      "éĤ£ä¹Ī": 2938,
      "thro": 2939,
      "å»ºè®®": 2940,
      "tumor": 2941,
      "crip": 2942,
      "æķ°éĩı": 2943,
      "èµĦæĸĻ": 2944,
      "å®¶åºŃ": 2945,
      "æ±¡æŁĵ": 2946,
      "pho": 2947,
      "åĢĴ": 2948,
      "cyto": 2949,
      "åī§": 2950,
      "çĶŁåĳ½": 2951,
      "ç§Ł": 2952,
      "mis": 2953,
      "åĪĨå¸ĥ": 2954,
      "based": 2955,
      "aining": 2956,
      "å¸®åĬ©": 2957,
      "é©±": 2958,
      "Î²": 2959,
      "ä¸°å¯Į": 2960,
      "æĹ¶åĢĻ": 2961,
      "ä¹ĥ": 2962,
      "è¿ĺæľī": 2963,
      "agno": 2964,
      "éĢ»è¾ĳ": 2965,
      "yl": 2966,
      "è¿¹": 2967,
      "èĨľ": 2968,
      "ä¼łæĴŃ": 2969,
      "åıĽ": 2970,
      "To": 2971,
      "éĩįè§Ĩ": 2972,
      "å«¡": 2973,
      "05": 2974,
      "ä¹ĭåŃĲ": 2975,
      "mut": 2976,
      "çī¹æ®Ĭ": 2977,
      "æĺ¾ç¤º": 2978,
      "åĩ½": 2979,
      "ãĥ": 2980,
      "åıªæĺ¯": 2981,
      "fied": 2982,
      "lif": 2983,
      "view": 2984,
      "ä½ľèĢħ": 2985,
      "deter": 2986,
      "èµĶ": 2987,
      "patient": 2988,
      "ä¹ı": 2989,
      "dition": 2990,
      "è½®": 2991,
      "ä¸Ģæ¬¡": 2992,
      "å·´": 2993,
      "cre": 2994,
      "äººçī©": 2995,
      "ãĢį": 2996,
      "urther": 2997,
      "ç¼ĵ": 2998,
      "ãĢĮ": 2999,
      "repor": 3000,
      "è¶ħè¿ĩ": 3001,
      "æĮĩæłĩ": 3002,
      "çĽ¸åºĶ": 3003,
      "æľīåĪ©": 3004,
      "å®Ŀ": 3005,
      "ä¸°èĩ£ç§ĢåĲī": 3006,
      "æĭ¥æľī": 3007,
      "produc": 3008,
      "æ²¹": 3009,
      "typ": 3010,
      "ä»²": 3011,
      "ä¸Ģèĩ´": 3012,
      "ç¡®ä¿Ŀ": 3013,
      "æ·±åĮĸ": 3014,
      "åĺ": 3015,
      "sel": 3016,
      "åħīç§Ģ": 3017,
      "ä¼ļè®¡": 3018,
      "å¤Ħäºİ": 3019,
      "å·®å¼Ĥ": 3020,
      "ute": 3021,
      "####": 3022,
      "åĮĸåŃ¦": 3023,
      "trac": 3024,
      "èŃ¦": 3025,
      "éģµ": 3026,
      "CC": 3027,
      "ç¥ŀç»ı": 3028,
      "æ¶µ": 3029,
      "æĿ¾å¹³": 3030,
      "åĬª": 3031,
      "ä½¿å¾Ĺ": 3032,
      "æĬĺ": 3033,
      "only": 3034,
      "åªĴ": 3035,
      "stand": 3036,
      "sco": 3037,
      "åĪĨä¸º": 3038,
      "38": 3039,
      "åĬ¨åĬĽ": 3040,
      "çľŁæŃ£": 3041,
      "æĢ»ä¹¦è®°": 3042,
      "æĬĢèĥ½": 3043,
      "è£Ĥ": 3044,
      "èĽĭçĻ½": 3045,
      "aff": 3046,
      "å¾Īå¤ļ": 3047,
      "èĮ¶": 3048,
      "å¦ĤæŃ¤": 3049,
      "compared": 3050,
      "åĳ½ä»¤": 3051,
      "è°¦ä¿¡": 3052,
      "çķł": 3053,
      "æĪĺæŃ»": 3054,
      "ST": 3055,
      "34": 3056,
      "divid": 3057,
      "å¤©ä¸ĭ": 3058,
      "å®ļä¹ī": 3059,
      "èĩªæĪĳ": 3060,
      "æ£Ģæµĭ": 3061,
      "åĪĨç±»": 3062,
      "åĮĹäº¬": 3063,
      "ages": 3064,
      "åĪĢ": 3065,
      "çĪĨ": 3066,
      "ä¸įè¶³": 3067,
      "é¦Ļ": 3068,
      "å¥Ĺ": 3069,
      "set": 3070,
      "Al": 3071,
      "æ°ĳäºĭ": 3072,
      "signal": 3073,
      "è¯Ĭ": 3074,
      "åĩĨå¤ĩ": 3075,
      "åĿı": 3076,
      "çī©çĲĨ": 3077,
      "measure": 3078,
      "å¯»": 3079,
      "èĥĮæĻ¯": 3080,
      "å°±ä¸ļ": 3081,
      "ç´¯": 3082,
      "çĩ": 3083,
      "èıĮ": 3084,
      "ä¸Ĭè¿°": 3085,
      "CI": 3086,
      "che": 3087,
      "method": 3088,
      "çºł": 3089,
      "155": 3090,
      "main": 3091,
      "lam": 3092,
      "Figure": 3093,
      "ä¸»å¼ł": 3094,
      "line": 3095,
      "48": 3096,
      "Un": 3097,
      "anis": 3098,
      "regul": 3099,
      "port": 3100,
      "åī¯": 3101,
      "ä¸»åĬ¨": 3102,
      "è¿Ľç¨ĭ": 3103,
      "éĺ¶çº§": 3104,
      "éĿĻ": 3105,
      "æįŁå¤±": 3106,
      "ck": 3107,
      "éģ£": 3108,
      "èĩªä¸»": 3109,
      "ization": 3110,
      "éĻĪ": 3111,
      "ution": 3112,
      "diagno": 3113,
      "å°¼åŃĲ": 3114,
      "ful": 3115,
      "çĺ¤": 3116,
      "care": 3117,
      "æĶ¯ä»ĺ": 3118,
      "æĭĽ": 3119,
      "å¤įåħ´": 3120,
      "æĪĲåĳĺ": 3121,
      "å°¤åħ¶": 3122,
      "åĲĪæĪĺ": 3123,
      "æļ´": 3124,
      "åĪ¤æĸŃ": 3125,
      "research": 3126,
      "æĭĵ": 3127,
      "ç¥¨": 3128,
      "ä¹ĭåīį": 3129,
      "ä¹ĺ": 3130,
      "è½¬ç§»": 3131,
      "éĴ±": 3132,
      "äº¤æµģ": 3133,
      "äº§æĿĥ": 3134,
      "neur": 3135,
      "ä¸ĢåĪĩ": 3136,
      "centr": 3137,
      "éľ²": 3138,
      "æĸĩåŃ¦": 3139,
      "éĿ¢ä¸´": 3140,
      "åĬªåĬĽ": 3141,
      "çİ°åľ¨": 3142,
      "ited": 3143,
      "åĶĲ": 3144,
      "æĴĳ": 3145,
      "number": 3146,
      "è¾©": 3147,
      "åįĸ": 3148,
      "ç¡¬": 3149,
      "è¦": 3150,
      "åĩºçīĪ": 3151,
      "blood": 3152,
      "å±Ĭ": 3153,
      "åĽ½æ°ĳ": 3154,
      "ational": 3155,
      "31": 3156,
      "arget": 3157,
      "è½¯ä»¶": 3158,
      "è¡°": 3159,
      "ä¼Ĭè¾¾": 3160,
      "ç®Ģåįķ": 3161,
      "èĸ": 3162,
      "ective": 3163,
      "èµĭ": 3164,
      "éģ¿åħį": 3165,
      "import": 3166,
      "åħ¨éĥ¨": 3167,
      "è§¦": 3168,
      "process": 3169,
      "åĨĽéĺŁ": 3170,
      "å©ļ": 3171,
      "ron": 3172,
      "ä¸Ģèµ·": 3173,
      "è¯ļ": 3174,
      "ç¯ĩ": 3175,
      "ä¿¡åı·": 3176,
      "bib": 3177,
      "æŃ£å¼ı": 3178,
      "æĮĳæĪĺ": 3179,
      "æįŁå®³": 3180,
      "è®¾ç½®": 3181,
      "æķ°åŃ¦": 3182,
      "è½¬åıĺ": 3183,
      "æ¯ıä¸ª": 3184,
      "èĤ¿": 3185,
      "However": 3186,
      "æ£ĢæŁ¥": 3187,
      "æµ¦": 3188,
      "çªģåĩº": 3189,
      "æľĿå»·": 3190,
      "æ·±åĪ»": 3191,
      "è´¤": 3192,
      "åĵª": 3193,
      "def": 3194,
      "åŃ¦æľ¯": 3195,
      "ici": 3196,
      "PA": 3197,
      "å®¤çĶº": 3198,
      "éĽ¶": 3199,
      "æĢĢ": 3200,
      "æŃ¤åĲİ": 3201,
      "ane": 3202,
      "æīĢè°ĵ": 3203,
      "çĶ±æŃ¤": 3204,
      "åįģä¹Ŀ": 3205,
      "çŃĸçķ¥": 3206,
      "ä¸´åºĬ": 3207,
      "vis": 3208,
      "Âł": 3209,
      "mem": 3210,
      "èª": 3211,
      "å¼¹": 3212,
      "çī¹å®ļ": 3213,
      "assess": 3214,
      "è§Ĵåº¦": 3215,
      "éļ¾ä»¥": 3216,
      "ä¹ĭä¹±": 3217,
      "è®¨è®º": 3218,
      "32": 3219,
      "åı¦ä¸Ģæĸ¹éĿ¢": 3220,
      "è®¤å®ļ": 3221,
      "response": 3222,
      "sive": 3223,
      "å¹ħ": 3224,
      "éĽĨä½ĵ": 3225,
      "ä½ľåĵģ": 3226,
      "çº¦å®ļ": 3227,
      "æµĭè¯ķ": 3228,
      "æĶ¯æĴĳ": 3229,
      "å¹³è¡¡": 3230,
      "è¦Ĩ": 3231,
      "some": 3232,
      "ung": 3233,
      "mental": 3234,
      "usion": 3235,
      "äººå·¥": 3236,
      "åīįå¾Ģ": 3237,
      "æĺ¾èĳĹ": 3238,
      "åŃ¦èĢħ": 3239,
      "éħįç½®": 3240,
      "mech": 3241,
      "åıĬæĹ¶": 3242,
      "kin": 3243,
      "åŁ¹è®Ń": 3244,
      "åı¥": 3245,
      "shown": 3246,
      "è®¡ç®Ĺæľº": 3247,
      "çĸ¾çĹħ": 3248,
      "åħģ": 3249,
      "my": 3250,
      "pos": 3251,
      "ç¢į": 3252,
      "æĶ¹åĸĦ": 3253,
      "å¤ľ": 3254,
      "è½¬åŀĭ": 3255,
      "ä¾ĽåºĶ": 3256,
      "å¥ĩ": 3257,
      "effects": 3258,
      "çĤİ": 3259,
      "Con": 3260,
      "éļıåĲİ": 3261,
      "åģ¥åħ¨": 3262,
      "å¿«éĢŁ": 3263,
      "poten": 3264,
      "æĿ¥æºĲ": 3265,
      "ç»ķ": 3266,
      "éĢĲæŃ¥": 3267,
      "åİŁçĲĨ": 3268,
      "eno": 3269,
      "target": 3270,
      "è½¬åĮĸ": 3271,
      "å®ģ": 3272,
      "å¸Ń": 3273,
      "bin": 3274,
      "dependent": 3275,
      "å®ªæ³ķ": 3276,
      "çļ®": 3277,
      "ceptor": 3278,
      "è§Ĥå¿µ": 3279,
      "åħ±äº«": 3280,
      "vious": 3281,
      "çļĨ": 3282,
      "æ®ĭ": 3283,
      "åĪ¸": 3284,
      "æģ¢": 3285,
      "é¾Ł": 3286,
      "èµĶåģ¿": 3287,
      "æľ¬èº«": 3288,
      "å®¢è§Ĥ": 3289,
      "æ¨ª": 3290,
      "éªı": 3291,
      "å¤ļæķ°": 3292,
      "ody": 3293,
      "å§ĭç»Ī": 3294,
      "ç¼ĺ": 3295,
      "æħ§": 3296,
      "åĲĮæł·": 3297,
      "atory": 3298,
      "æĽ´å¥½": 3299,
      "ä¸Ģç³»åĪĹ": 3300,
      "åĦ¿ç«¥": 3301,
      "ore": 3302,
      "æľ¬è´¨": 3303,
      "role": 3304,
      "ä¸Ģæı": 3305,
      "æľĿä»ĵ": 3306,
      "æī¬": 3307,
      "could": 3308,
      "æķı": 3309,
      "there": 3310,
      "æĻ®éģį": 3311,
      "çıŃ": 3312,
      "æĢ»ä½ĵ": 3313,
      "èī¯å¥½": 3314,
      "æĥł": 3315,
      "coun": 3316,
      "sure": 3317,
      "å¤§ä¼ļ": 3318,
      "ä¸Ģæĺ¯": 3319,
      "åįģåĽĽ": 3320,
      "èĵ": 3321,
      "è±ª": 3322,
      "å¤ļç§į": 3323,
      "tively": 3324,
      "æ³ī": 3325,
      "ä¾į": 3326,
      "ER": 3327,
      "ä¸¤ç§į": 3328,
      "ot": 3329,
      "åħ°": 3330,
      "ide": 3331,
      "äºĶå¹´": 3332,
      "è·ĥ": 3333,
      "æľĿé²ľ": 3334,
      "åıĳå¸ĥ": 3335,
      "ä»įçĦ¶": 3336,
      "åŃ£": 3337,
      "brain": 3338,
      "when": 3339,
      "é«ĺæł¡": 3340,
      "å¾ªçİ¯": 3341,
      "æĬ¼": 3342,
      "induced": 3343,
      "cardi": 3344,
      "å±Ĥæ¬¡": 3345,
      "è¶ĭåĬ¿": 3346,
      "For": 3347,
      "ä¸Ģæł·": 3348,
      "ç»Łè®¡": 3349,
      "ä¸īæ²³": 3350,
      "very": 3351,
      "ä¸ĢæıĨ": 3352,
      "å·¨å¤§": 3353,
      "performed": 3354,
      "é½": 3355,
      "effect": 3356,
      "åįģåĪĨ": 3357,
      "AD": 3358,
      "ä¼ĳ": 3359,
      "æĸĲ": 3360,
      "prim": 3361,
      "è¿ħ": 3362,
      "ä¸įä¼ļ": 3363,
      "å¹²éĥ¨": 3364,
      "receptor": 3365,
      "åĳ¼": 3366,
      "éĢŁåº¦": 3367,
      "---": 3368,
      "æģ¢å¤į": 3369,
      "æĬĵ": 3370,
      "åĩ½æķ°": 3371,
      "çĽ¸åĲĮ": 3372,
      "mes": 3373,
      "fe": 3374,
      "çĦ¶åĲİ": 3375,
      "éŃ": 3376,
      "stimul": 3377,
      "å®ı": 3378,
      "Î±": 3379,
      "ä½įç½®": 3380,
      "éĺħ": 3381,
      "IV": 3382,
      "ä¸Ģæĸ¹": 3383,
      "å¥ĭæĸĹ": 3384,
      "significantly": 3385,
      "sa": 3386,
      "å¾Ģå¾Ģ": 3387,
      "åįģå¹´": 3388,
      "imal": 3389,
      "dic": 3390,
      "åĢºæĿĥ": 3391,
      "curren": 3392,
      "char": 3393,
      "åĩºåıĳ": 3394,
      "These": 3395,
      "å®ĭ": 3396,
      "ital": 3397,
      "å²Ĳ": 3398,
      "å¾Ĵ": 3399,
      "æĬĬæı¡": 3400,
      "æĸĹäºī": 3401,
      "æ¯Ķå¦Ĥ": 3402,
      "including": 3403,
      "49": 3404,
      "åĩºæĿ¥": 3405,
      "SD": 3406,
      "ç¾İæµĵ": 3407,
      "çģ¾": 3408,
      "é©»": 3409,
      "èĢĹ": 3410,
      "åĨĮ": 3411,
      "ä¼´": 3412,
      "where": 3413,
      "way": 3414,
      "çİ¯èĬĤ": 3415,
      "éĩįæĸ°": 3416,
      "åħ¬å¹³": 3417,
      "è´¡çĮ®": 3418,
      "æĹħ": 3419,
      "inflam": 3420,
      "èĮĤ": 3421,
      "ality": 3422,
      "PD": 3423,
      "è§Ĩä¸º": 3424,
      "è¿ĳæ±Ł": 3425,
      "æĢ§èĥ½": 3426,
      "dividual": 3427,
      "ature": 3428,
      "ç»ĺ": 3429,
      "ç¼ºä¹ı": 3430,
      "æī¶": 3431,
      "é«ĺè´¨éĩı": 3432,
      "æľīéĻĲ": 3433,
      "åİļ": 3434,
      "ä¸ĢæĿ¡": 3435,
      "body": 3436,
      "fore": 3437,
      "åĨįæ¬¡": 3438,
      "çĻ¾å¹´": 3439,
      "CO": 3440,
      "åĲĪæ³ķ": 3441,
      "åĿĢ": 3442,
      "39": 3443,
      "æģ©": 3444,
      "01": 3445,
      "ç®Ĺæ³ķ": 3446,
      "mil": 3447,
      "æĬĳ": 3448,
      "Re": 3449,
      "MR": 3450,
      "çĽ¸å½ĵ": 3451,
      "factors": 3452,
      "èĩªåĬ¨": 3453,
      "è§Ĥå¯Ł": 3454,
      "äºĮæĺ¯": 3455,
      "æĿ¥çľĭ": 3456,
      "è¯ĳ": 3457,
      "åĽ½äºº": 3458,
      "æĿĥçĽĬ": 3459,
      "Pro": 3460,
      "åĢ¾": 3461,
      "æ¹ĸ": 3462,
      "ä¸ºä¸»": 3463,
      "æĬķåħ¥": 3464,
      "ä¿Ĺ": 3465,
      "éªĳ": 3466,
      "Res": 3467,
      "åį±æľº": 3468,
      "æ³°": 3469,
      "æĿ¥èĩª": 3470,
      "invol": 3471,
      "è¯ķéªĮ": 3472,
      "å¸ĮæľĽ": 3473,
      "ä¸Ģä½ĵ": 3474,
      "éħĴ": 3475,
      "they": 3476,
      "159": 3477,
      "åı¦å¤ĸ": 3478,
      "exp": 3479,
      "cin": 3480,
      "åįıåĲĮ": 3481,
      "å±ķå¼Ģ": 3482,
      "ä¹Ŀå·ŀ": 3483,
      "åĩĨç¡®": 3484,
      "æŃ£åľ¨": 3485,
      "ä¸¥æł¼": 3486,
      "ä¼ĬåĬ¿": 3487,
      "through": 3488,
      "æĭĴ": 3489,
      "æĸ°åŀĭ": 3490,
      "ä¸ĢåĲĮ": 3491,
      "art": 3492,
      "first": 3493,
      "åĩĿ": 3494,
      "äºĭåĬ¡": 3495,
      "eng": 3496,
      "æĹ¨": 3497,
      "å°½ç®¡": 3498,
      "èµı": 3499,
      "action": 3500,
      "reported": 3501,
      "åĢį": 3502,
      "è¯¾åłĤ": 3503,
      "èĭ¦": 3504,
      "æĢ»ç»ĵ": 3505,
      "æĻļ": 3506,
      "observed": 3507,
      "Sec": 3508,
      "new": 3509,
      "éĩįèĩ£": 3510,
      "ä¿¡çĶ¨": 3511,
      "æŃ£æĺ¯": 3512,
      "æĻºæħ§": 3513,
      "MP": 3514,
      "ä»ĭç»į": 3515,
      "åĪº": 3516,
      "å®¶æĹı": 3517,
      "é¼ĵåĬ±": 3518,
      "tics": 3519,
      "individual": 3520,
      "ç²Ĵ": 3521,
      "å¿ħçĦ¶": 3522,
      "ç©¿": 3523,
      "åĮħåĲ«": 3524,
      "éĥ¨éĺŁ": 3525,
      "å½ĵä¸»": 3526,
      "ens": 3527,
      "å°¾å¼ł": 3528,
      "å±ĤéĿ¢": 3529,
      "çĶ²æĸĲ": 3530,
      "åı¯è§ģ": 3531,
      "çĻĮ": 3532,
      "åĬłåħ¥": 3533,
      "éĻ¤äºĨ": 3534,
      "ä¾Ľç»Ļ": 3535,
      "åıĤèĢĥ": 3536,
      "mechanis": 3537,
      "ä¼¯": 3538,
      "å®ľ": 3539,
      "plement": 3540,
      "è¿ĽæŃ¥": 3541,
      "As": 3542,
      "table": 3543,
      "æ±½": 3544,
      "ving": 3545,
      "lim": 3546,
      "å²¸": 3547,
      "æ¡Ĩ": 3548,
      "ency": 3549,
      "app": 3550,
      "åĩºåħµ": 3551,
      "åħ·å¤ĩ": 3552,
      "çªģçł´": 3553,
      "éĶĭ": 3554,
      "çĬ¶åĨµ": 3555,
      "development": 3556,
      "46": 3557,
      "æ¬²": 3558,
      "47": 3559,
      "å³°": 3560,
      "æľīæľº": 3561,
      "his": 3562,
      "æŀª": 3563,
      "prog": 3564,
      "æĸĩçĮ®": 3565,
      "è®Ńç»ĥ": 3566,
      "åĪļ": 3567,
      "å¯¹å¤ĸ": 3568,
      "æĢİ": 3569,
      "Î¼": 3570,
      "æľºä¼ļ": 3571,
      "å±ħæ°ĳ": 3572,
      "é¸Ł": 3573,
      "showed": 3574,
      "ä¸ĩçŁ³": 3575,
      "direc": 3576,
      "ded": 3577,
      "mm": 3578,
      "æ¶¦": 3579,
      "tra": 3580,
      "ition": 3581,
      "ä¼¦": 3582,
      "è¶£": 3583,
      "æ¡Īä¾ĭ": 3584,
      "éĢļä¿¡": 3585,
      "å¤§åĿĤ": 3586,
      "years": 3587,
      "198": 3588,
      "child": 3589,
      "ä¸ĭéĻį": 3590,
      "evalu": 3591,
      "ä¿¡æµĵ": 3592,
      "åĲĦåľ°": 3593,
      "mark": 3594,
      "higher": 3595,
      "æµģåĬ¨": 3596,
      "ld": 3597,
      "éĿ¢å¯¹": 3598,
      "æµª": 3599,
      "IP": 3600,
      "character": 3601,
      "å®¡æŁ¥": 3602,
      "èį¯çī©": 3603,
      "åħĪè¿Ľ": 3604,
      "çľŁå®ŀ": 3605,
      "inj": 3606,
      "åŃ¦éĻ¢": 3607,
      "three": 3608,
      "ucle": 3609,
      "ç³ĸ": 3610,
      "æµĭéĩı": 3611,
      "è¯¢": 3612,
      "æħ¢": 3613,
      "è¸": 3614,
      "è®¾ç«ĭ": 3615,
      "å®ħ": 3616,
      "groups": 3617,
      "bec": 3618,
      "å®īæİĴ": 3619,
      "æļĹ": 3620,
      "åİĤ": 3621,
      "air": 3622,
      "las": 3623,
      "ner": 3624,
      "ology": 3625,
      "åıªèĥ½": 3626,
      "æľīåĪ©äºİ": 3627,
      "å°ıçĶ°": 3628,
      "ä½ľæĪĺ": 3629,
      "region": 3630,
      "çĪĨåıĳ": 3631,
      "å®īåľŁ": 3632,
      "äºĮå¹´": 3633,
      "åħ±åĴĮ": 3634,
      "important": 3635,
      "åĥ§": 3636,
      "ç¿»": 3637,
      "ç§ĳçłĶ": 3638,
      "åĦ¿åŃĲ": 3639,
      "multi": 3640,
      "è´¦": 3641,
      "çĽĺ": 3642,
      "æ¯Ķä¾ĭ": 3643,
      "æĹłè®º": 3644,
      "æĬ½": 3645,
      "å¤ļæł·": 3646,
      "åĲĦåĽ½": 3647,
      "å·¦åı³": 3648,
      "estig": 3649,
      "çĻ»è®°": 3650,
      "åºĶå¯¹": 3651,
      "tissue": 3652,
      "æĢĿèĢĥ": 3653,
      "ves": 3654,
      "ç¡®ç«ĭ": 3655,
      "decre": 3656,
      "neuro": 3657,
      "èĥľåĪ©": 3658,
      "previous": 3659,
      "æŃ£å¸¸": 3660,
      "æķĪåºĶ": 3661,
      "æ½®": 3662,
      "åĽ½æľī": 3663,
      "åĨ·": 3664,
      "----------------------------------------------------------------": 3665,
      "ax": 3666,
      "go": 3667,
      "ai": 3668,
      "ress": 3669,
      "zed": 3670,
      "éĽª": 3671,
      "è¿ŀæİ¥": 3672,
      "cus": 3673,
      "éĺ´": 3674,
      "ç§©": 3675,
      "è¶ĬæĿ¥": 3676,
      "ise": 3677,
      "åį«çĶŁ": 3678,
      "è¶ĬæĿ¥è¶Ĭ": 3679,
      "therapy": 3680,
      "pat": 3681,
      "ç´łè´¨": 3682,
      "long": 3683,
      "åħ¬å¼Ģ": 3684,
      "post": 3685,
      "virus": 3686,
      "è´¯å½»": 3687,
      "SP": 3688,
      "ï¼ģ": 3689,
      "44": 3690,
      "ä¹ĭä¸Ń": 3691,
      "grap": 3692,
      "æĶ¹éĿ©å¼ĢæĶ¾": 3693,
      "åĲĦä¸ª": 3694,
      "çķłå±±": 3695,
      "larg": 3696,
      "ç§ĺ": 3697,
      "æľ¬æĸĩ": 3698,
      "å¹³åĿĩ": 3699,
      "åį¡": 3700,
      "io": 3701,
      "mer": 3702,
      "åĽ½åĬ¡": 3703,
      "ä½įäºİ": 3704,
      "å¤ļä¸ª": 3705,
      "éĻ¶": 3706,
      "è´¹çĶ¨": 3707,
      "åįģä¸ī": 3708,
      "within": 3709,
      "åĨ²çªģ": 3710,
      "vas": 3711,
      "å®ŀéĻħä¸Ĭ": 3712,
      "é«ĺçŃī": 3713,
      "æľīåĬĽ": 3714,
      "åıįå¯¹": 3715,
      "Table": 3716,
      "åıĳåĬ¨": 3717,
      "ÃĹ": 3718,
      "æł¼å±Ģ": 3719,
      "æľºåĻ¨": 3720,
      "çĲĨæĥ³": 3721,
      "åĽ¢éĺŁ": 3722,
      "æĸĩä¹¦": 3723,
      "activation": 3724,
      "75": 3725,
      "lish": 3726,
      "å¼¥": 3727,
      "çºµ": 3728,
      "AC": 3729,
      "åħ¬æ°ĳ": 3730,
      "çŁ¥éģĵ": 3731,
      "grow": 3732,
      "å®Įæķ´": 3733,
      "å¾Īå¤§": 3734,
      "cap": 3735,
      "åī²": 3736,
      "åĽłèĢĮ": 3737,
      "èŀįèµĦ": 3738,
      "ç£ģ": 3739,
      "æ²ī": 3740,
      "positive": 3741,
      "çĭŃ": 3742,
      "é¢Ħæµĭ": 3743,
      "ene": 3744,
      "ç¤¾åĮº": 3745,
      "ext": 3746,
      "çľĭåĪ°": 3747,
      "ä¸Ĭæµ·": 3748,
      "42": 3749,
      "åıĺéĿ©": 3750,
      "æĥħå½¢": 3751,
      "NF": 3752,
      "å®¹æĺĵ": 3753,
      "é¾Ħ": 3754,
      "åŃĺåĤ¨": 3755,
      "éĢĴ": 3756,
      "åİĭåĬĽ": 3757,
      "It": 3758,
      "èĥģ": 3759,
      "sid": 3760,
      "æµħäºķ": 3761,
      "æ¯ķ": 3762,
      "èĤ¡ä¸ľ": 3763,
      "fr": 3764,
      "è¶ĬåĲİ": 3765,
      "atis": 3766,
      "å¹³çŃī": 3767,
      "è¾ĸ": 3768,
      "plas": 3769,
      "roph": 3770,
      "èĤº": 3771,
      "å¼ºå¤§": 3772,
      "those": 3773,
      "èĪŀ": 3774,
      "investig": 3775,
      "æ²Ł": 3776,
      "åŁºç¡Ģè®¾æĸ½": 3777,
      "éķ¿å°¾": 3778,
      "éĺĲ": 3779,
      "hypo": 3780,
      "çĽĳæµĭ": 3781,
      "tran": 3782,
      "bre": 3783,
      "CP": 3784,
      "ace": 3785,
      "mean": 3786,
      "åĽ°éļ¾": 3787,
      "è¿ħéĢŁ": 3788,
      "demon": 3789,
      "è°Ĳ": 3790,
      "å®ĹæķĻ": 3791,
      "demonstr": 3792,
      "çŁ¿": 3793,
      "He": 3794,
      "è¿ĩåİ»": 3795,
      "å¹¶éĿŀ": 3796,
      "åĽ½åĬ¡éĻ¢": 3797,
      "è¯º": 3798,
      "éķľ": 3799,
      "cular": 3800,
      "inhibit": 3801,
      "æ³¨éĩį": 3802,
      "infection": 3803,
      "çī¢": 3804,
      "need": 3805,
      "æııè¿°": 3806,
      "ç»ıæµİåŃ¦": 3807,
      "æĥ¯": 3808,
      "provid": 3809,
      "è°¢": 3810,
      "çİī": 3811,
      "æķ°åŃĹåĮĸ": 3812,
      "led": 3813,
      "é½Ĳ": 3814,
      "æķĻæİĪ": 3815,
      "ç§©åºı": 3816,
      "ä¸ªä½ĵ": 3817,
      "é¡¶": 3818,
      "å¯¹ç«ĭ": 3819,
      "æĺİæĻº": 3820,
      "åĪĳäºĭ": 3821,
      "æĳ©": 3822,
      "å½ĵåľ°": 3823,
      "pri": 3824,
      "è¡¨éĿ¢": 3825,
      "æĪı": 3826,
      "æĸĭèĹ¤": 3827,
      "impro": 3828,
      "ä¸ĵåĪ©": 3829,
      "è¯ĨåĪ«": 3830,
      "åĳ¨æľŁ": 3831,
      "æ²Ļ": 3832,
      "....": 3833,
      "65": 3834,
      "æĹĭ": 3835,
      "èĴĻ": 3836,
      "çĩĥ": 3837,
      "åŁºéĩĳ": 3838,
      "åľĨ": 3839,
      "king": 3840,
      "RA": 3841,
      "2020": 3842,
      "æ¢°": 3843,
      "ç¡®è®¤": 3844,
      "particip": 3845,
      "åīįæıĲ": 3846,
      "ost": 3847,
      "æĪĺæĸĹ": 3848,
      "lead": 3849,
      "predic": 3850,
      "æ¡ĥ": 3851,
      "less": 3852,
      "endo": 3853,
      "éĹŃ": 3854,
      "æ·±åº¦": 3855,
      "ç¾¤ä½ĵ": 3856,
      "Ad": 3857,
      "çĳ": 3858,
      "åįģåħŃ": 3859,
      "åŁºå±Ĥ": 3860,
      "ie": 3861,
      "crib": 3862,
      "çĽĲ": 3863,
      "sol": 3864,
      "dro": 3865,
      "å½ĵçĦ¶": 3866,
      "ero": 3867,
      "åŃĶ": 3868,
      "åħ¸åŀĭ": 3869,
      "çĽ¸æ¯Ķ": 3870,
      "éĶĻè¯¯": 3871,
      "åĬ¨æĢģ": 3872,
      "ç»ıåİĨ": 3873,
      "è®¤çŁ¥": 3874,
      "æłĩå¿Ĺ": 3875,
      "çĹĽ": 3876,
      "åħįçĸ«": 3877,
      "åħ»åŃĲ": 3878,
      "treated": 3879,
      "å¹´æĿ¥": 3880,
      "å½¢åĬ¿": 3881,
      "ze": 3882,
      "åħ±åĴĮåĽ½": 3883,
      "åĩĢ": 3884,
      "åĬ³åĬ¨èĢħ": 3885,
      "ived": 3886,
      "æĶ¶çĽĬ": 3887,
      "èħ¹": 3888,
      "bas": 3889,
      "ES": 3890,
      "ini": 3891,
      "changes": 3892,
      "æĮĩæĮ¥": 3893,
      "sible": 3894,
      "åĪĺ": 3895,
      "éļĶ": 3896,
      "èĩªæ²»": 3897,
      "43": 3898,
      "rate": 3899,
      "ç»ŁçŃ¹": 3900,
      "åĴĮå¹³": 3901,
      "There": 3902,
      "åĽ¢ç»ĵ": 3903,
      "MS": 3904,
      "å¸ĥå±Ģ": 3905,
      "aging": 3906,
      "41": 3907,
      "æľīæīĢ": 3908,
      "åı«": 3909,
      "ä»»åĳ½": 3910,
      "æļĤ": 3911,
      "å¥īè¡Į": 3912,
      "ä¸Ńåħ±": 3913,
      "é¡µ": 3914,
      "åĹ": 3915,
      "çŀ": 3916,
      "æµģç¨ĭ": 3917,
      "åĲĦç±»": 3918,
      "å¤ĸéĥ¨": 3919,
      "è´¢åĬ¡": 3920,
      "éĥ¨ç½²": 3921,
      "æ¡Ĩæŀ¶": 3922,
      "any": 3923,
      "åħ³åİŁ": 3924,
      "ä¼ĺç§Ģ": 3925,
      "potential": 3926,
      "çĹħæ¯Ĵ": 3927,
      "pack": 3928,
      "è¿ĻéĩĮ": 3929,
      "ä¸ĵå®¶": 3930,
      "èĤ¿çĺ¤": 3931,
      "001": 3932,
      "æ¯ģ": 3933,
      "ä»İäºĭ": 3934,
      "æ¹¾": 3935,
      "åĲĮå¿Ĺ": 3936,
      "éľĩ": 3937,
      "èµŀ": 3938,
      "çİĩé¢Ĩ": 3939,
      "æīĢåľ¨": 3940,
      "æķ´åĲĪ": 3941,
      "åħ¬ä¼Ĺ": 3942,
      "èµĸæľĿ": 3943,
      "sm": 3944,
      "çĦ¦": 3945,
      "çłĶåıĳ": 3946,
      "èĭ±åĽ½": 3947,
      "å®ŀä½ĵ": 3948,
      "çī¹æĢ§": 3949,
      "åĦĴ": 3950,
      "drug": 3951,
      "æĦıåĳ³": 3952,
      "éĢĶå¾Ħ": 3953,
      "å¤ı": 3954,
      "finding": 3955,
      "éĽĨåĽ¢": 3956,
      "ically": 3957,
      "åŁİä¹¡": 3958,
      "è¿Ŀæ³ķ": 3959,
      "plic": 3960,
      "ä¸Ģé¡¹": 3961,
      "çĥ§": 3962,
      "hip": 3963,
      "åĽ´ç»ķ": 3964,
      "53": 3965,
      "è¿½æ±Ĥ": 3966,
      "subj": 3967,
      "cases": 3968,
      "åŁİä¸»": 3969,
      "increase": 3970,
      "åĮħåĽ´": 3971,
      "gre": 3972,
      "åĩłä¹İ": 3973,
      "ID": 3974,
      "èİ·åıĸ": 3975,
      "çĪ¶åŃĲ": 3976,
      "èĤĮ": 3977,
      "å¥ĸ": 3978,
      "vic": 3979,
      "ä»ĸäºº": 3980,
      "åħļä¸Ńå¤®": 3981,
      "æķĻæĿĲ": 3982,
      "è¶Ĭåīį": 3983,
      "æĻ®éĢļ": 3984,
      "åį«éĹ¨": 3985,
      "ness": 3986,
      "ret": 3987,
      "åªĴä½ĵ": 3988,
      "æĢģåº¦": 3989,
      "åľ°çĲĨ": 3990,
      "æ¯Ľæ³½": 3991,
      "é¢Ĩä¸»": 3992,
      "AR": 3993,
      "å°º": 3994,
      "ä¸Ģå¸¦": 3995,
      "åıĳè¡¨": 3996,
      "æ¯Ľæ³½ä¸ľ": 3997,
      "æī°": 3998,
      "æ´ŀ": 3999,
      "æĪĲå°±": 4000,
      "ç»ĵæĿŁ": 4001,
      "å®ŀè´¨": 4002,
      "ç¬¬äºĶ": 4003,
      "è¾ĥå¤§": 4004,
      "çī§": 4005,
      "ç»ĻäºĪ": 4006,
      "åŁİéķĩ": 4007,
      "å¡ĳ": 4008,
      "fib": 4009,
      "éĶĢåĶ®": 4010,
      "combin": 4011,
      "gram": 4012,
      "æĹ©æľŁ": 4013,
      "ä¾Ŀèµĸ": 4014,
      "æŃ¦çĶ°ä¿¡çİĦ": 4015,
      "requi": 4016,
      "åħ¬æĸ¹": 4017,
      "mod": 4018,
      "ï½": 4019,
      "ä¿Ĭ": 4020,
      "ä¼ĺåħĪ": 4021,
      "æ®ĸ": 4022,
      "ude": 4023,
      "åĿļå®ļ": 4024,
      "åħģè®¸": 4025,
      "Ex": 4026,
      "çº³åħ¥": 4027,
      "55": 4028,
      "æ°§åĮĸ": 4029,
      "pub": 4030,
      "é£Łåĵģ": 4031,
      "plementary": 4032,
      "æ±½è½¦": 4033,
      "å¾Ĺä»¥": 4034,
      "è¿Ĳè¾ĵ": 4035,
      "Cs": 4036,
      "ectively": 4037,
      "èģĮè´£": 4038,
      "No": 4039,
      "åĲĦçº§": 4040,
      "åħļçļĦ": 4041,
      "ä¸īæĪĲ": 4042,
      "æ¤įçī©": 4043,
      "åĪĽä¸ļ": 4044,
      "éĤ¦": 4045,
      "ä¸»å¯¼": 4046,
      "ç£¨": 4047,
      "è®ºæĸĩ": 4048,
      "rang": 4049,
      "è¯´æ³ķ": 4050,
      "ome": 4051,
      "åĬŀæ³ķ": 4052,
      "å®¡è®¡": 4053,
      "åĨħæ¶µ": 4054,
      "current": 4055,
      "çľŁçĶ°": 4056,
      "then": 4057,
      "âĢĻ": 4058,
      "åĽºå®ļ": 4059,
      "known": 4060,
      "å¯¹æĬĹ": 4061,
      "ä¾µæĿĥ": 4062,
      "æĽ´ä¸º": 4063,
      "Wh": 4064,
      "å¼ķé¢Ĩ": 4065,
      "è¿ĶåĽŀ": 4066,
      "åģļåĩº": 4067,
      "67": 4068,
      "org": 4069,
      "è·¯å¾Ħ": 4070,
      "MD": 4071,
      "çīĮ": 4072,
      "æĹ¥çĽĬ": 4073,
      "cytes": 4074,
      "ä¸Ńå°ı": 4075,
      "å¤ĸäº¤": 4076,
      "growth": 4077,
      "éĢĨ": 4078,
      "ç«ĭèĬ±": 4079,
      "èĶ": 4080,
      "èĤĿ": 4081,
      "åĳ¢": 4082,
      "mor": 4083,
      "å¦Ĥä¸ĭ": 4084,
      "package": 4085,
      "å·¦åį«éĹ¨": 4086,
      "åĬłå·¥": 4087,
      "ãĥ»": 4088,
      "å¤§å°Ĩ": 4089,
      "åĿĲ": 4090,
      "evid": 4091,
      "å®£ä¼ł": 4092,
      "å®¢æĪ·": 4093,
      "small": 4094,
      "sph": 4095,
      "æ¬§æ´²": 4096,
      "part": 4097,
      "ä»¿": 4098,
      "types": 4099,
      "æ³ķå®ļ": 4100,
      "ateg": 4101,
      "lab": 4102,
      "äººå·¥æĻºèĥ½": 4103,
      "ç¾½æŁ´": 4104,
      "æİĴæĶ¾": 4105,
      "çŁ¥è¯Ĩäº§æĿĥ": 4106,
      "ause": 4107,
      "æŃ»äº¡": 4108,
      "æģĴ": 4109,
      "Med": 4110,
      "samples": 4111,
      "proteins": 4112,
      "iter": 4113,
      "ä¸»é¢ĺ": 4114,
      "æº¶": 4115,
      "simil": 4116,
      "æ£Ģå¯Ł": 4117,
      "frequ": 4118,
      "çĤ®": 4119,
      "ç±»ä¼¼": 4120,
      "ãĢĲ": 4121,
      "åįģäºĶ": 4122,
      "sever": 4123,
      "è®¨ä¼Ĳ": 4124,
      "ç»´æĮģ": 4125,
      "åĳĪçİ°": 4126,
      "identified": 4127,
      "ãĢĳ": 4128,
      "vo": 4129,
      "å½©": 4130,
      "ry": 4131,
      "è½¨": 4132,
      "åħµåĬĽ": 4133,
      "æ¶¯": 4134,
      "ä¹ĭå¤ĸ": 4135,
      "GA": 4136,
      "ç¿Į": 4137,
      "abol": 4138,
      "suggest": 4139,
      "èĲ¨": 4140,
      "theli": 4141,
      "æ¾Ħ": 4142,
      "è¯±": 4143,
      "flu": 4144,
      "ä»²è£ģ": 4145,
      "å£¤": 4146,
      "immune": 4147,
      "è§£æĶ¾": 4148,
      "æĮ¯åħ´": 4149,
      "ç±į": 4150,
      "æī©å¼ł": 4151,
      "èįĴ": 4152,
      "é«ĺæķĪ": 4153,
      "hyper": 4154,
      "concentr": 4155,
      "onal": 4156,
      "contrib": 4157,
      "åħĦå¼Ł": 4158,
      "IF": 4159,
      "cogn": 4160,
      "å¹¡": 4161,
      "fy": 4162,
      "æĭħä¿Ŀ": 4163,
      "ks": 4164,
      "èħĲ": 4165,
      "çł´åĿı": 4166,
      "tu": 4167,
      "EM": 4168,
      "78": 4169,
      "åĬ¨çī©": 4170,
      "å®¿": 4171,
      "åı²æĸĻ": 4172,
      "éĽ¨": 4173,
      "rele": 4174,
      "æĦıåĳ³çĿĢ": 4175,
      "èľ": 4176,
      "åıĳè¾¾": 4177,
      "è¯ĬæĸŃ": 4178,
      "å¤ļåħĥ": 4179,
      "åķĨæłĩ": 4180,
      "çºłçº·": 4181,
      "æ¶Īè´¹èĢħ": 4182,
      "çĶŁæ¶¯": 4183,
      "èģĮèĥ½": 4184,
      "å¤ļå¹´": 4185,
      "åĽĽä¸ª": 4186,
      "åľ£": 4187,
      "poly": 4188,
      "æ¥ļ": 4189,
      "determin": 4190,
      "è¿ŀç»Ń": 4191,
      "äºĪä»¥": 4192,
      "information": 4193,
      "ç¨»": 4194,
      "å®ļä½į": 4195,
      "further": 4196,
      "ç«Ł": 4197,
      "åħ¶å®ŀ": 4198,
      "çĲĨæĢ§": 4199,
      "åĬłå¤§": 4200,
      "åĪĽå»º": 4201,
      "mater": 4202,
      "OS": 4203,
      "æ¢¦": 4204,
      "åĪĿæľŁ": 4205,
      "ä¿Ħ": 4206,
      "lower": 4207,
      "è¦ĨçĽĸ": 4208,
      "å·¥èīº": 4209,
      "vol": 4210,
      "men": 4211,
      "åı¤ä»£": 4212,
      "ditional": 4213,
      "ç¾İåħĥ": 4214,
      "é©±åĬ¨": 4215,
      "ä¼į": 4216,
      "äº¤æį¢": 4217,
      "iqu": 4218,
      "åĩºåı£": 4219,
      "population": 4220,
      "å¡ŀ": 4221,
      "æ¢ģ": 4222,
      "æįķ": 4223,
      "order": 4224,
      "æĹ¥è¯Ń": 4225,
      "çĽ¸ç»ĵåĲĪ": 4226,
      "erg": 4227,
      "æıŃ": 4228,
      "åĴĮè°Ĳ": 4229,
      "uce": 4230,
      "obt": 4231,
      "similar": 4232,
      "åĩºçĶŁ": 4233,
      "æ¡£": 4234,
      "æŁĲäºĽ": 4235,
      "ning": 4236,
      "describ": 4237,
      "total": 4238,
      "łéģĵ": 4239,
      "æĶ¹éĢł": 4240,
      "éķ¿æĶ¿": 4241,
      "éªıæ²³": 4242,
      "æĸĩç«ł": 4243,
      "mac": 4244,
      "usepackage": 4245,
      "æ°ĳæ³ķ": 4246,
      "æĦŁæŁĵ": 4247,
      "å±ŀæĢ§": 4248,
      "fer": 4249,
      "éļľç¢į": 4250,
      "åįģä¸ĥ": 4251,
      "ross": 4252,
      "erest": 4253,
      "åįĩçº§": 4254,
      "gi": 4255,
      "éĿĴå¹´": 4256,
      "tech": 4257,
      "åĮºåĪ«": 4258,
      "åĽĽå¹´": 4259,
      "è´«åĽ°": 4260,
      "ä¸Ĭæ´Ľ": 4261,
      "åıĤæķ°": 4262,
      "ently": 4263,
      "read": 4264,
      "âĢĺ": 4265,
      "äººæ°ĳåħ±åĴĮåĽ½": 4266,
      "nec": 4267,
      "æĬĳåĪ¶": 4268,
      "fication": 4269,
      "éĺ²æŃ¢": 4270,
      "addition": 4271,
      "åį±éĻ©": 4272,
      "è¾ŀ": 4273,
      "æ´¾éģ£": 4274,
      "ä¹ĭä¸ĭ": 4275,
      "vent": 4276,
      "éŁ³ä¹Ĳ": 4277,
      "å§»": 4278,
      "èĹ¤åİŁ": 4279,
      "ä¸ĵéĹ¨": 4280,
      "IC": 4281,
      "æ°ĶåĢĻ": 4282,
      "åĩłä¸ª": 4283,
      "å¯Ħ": 4284,
      "ä¸Ĭéĩİ": 4285,
      "å·©": 4286,
      "cording": 4287,
      "ression": 4288,
      "å®ŀåĬĽ": 4289,
      "68": 4290,
      "ä¿®æĶ¹": 4291,
      "æľºæ¢°": 4292,
      "åłĢ": 4293,
      "69": 4294,
      "åĺī": 4295,
      "åĮĹæĿ¡æ°ı": 4296,
      "åĩŃ": 4297,
      "åĲĮä¸Ģ": 4298,
      "æµ·æ´ĭ": 4299,
      "common": 4300,
      "æĬķéĻį": 4301,
      "å½ĵä»£": 4302,
      "åĨł": 4303,
      "å¼ķåıĳ": 4304,
      "ET": 4305,
      "ds": 4306,
      "åĮ»åŃ¦": 4307,
      "è¡Įä½¿": 4308,
      "Â°": 4309,
      "ç¨İæĶ¶": 4310,
      "ta": 4311,
      "Ac": 4312,
      "åĪ¶éĢłä¸ļ": 4313,
      "ural": 4314,
      "cho": 4315,
      "å»ºæĪĲ": 4316,
      "åĢ¡": 4317,
      "äºīè®®": 4318,
      "æľ±": 4319,
      "------------": 4320,
      "vascular": 4321,
      "ç®¡é¢Ĩ": 4322,
      "approach": 4323,
      "sist": 4324,
      "æĩ": 4325,
      "ä¸Ńåįİäººæ°ĳåħ±åĴĮåĽ½": 4326,
      "æľīçĿĢ": 4327,
      "temp": 4328,
      "è¾¾æĪĲ": 4329,
      "æĭĴç»Ŀ": 4330,
      "radi": 4331,
      "åħļåĳĺ": 4332,
      "åģļå¥½": 4333,
      "å®ıè§Ĥ": 4334,
      "survi": 4335,
      "éĺħè¯»": 4336,
      "æ¸©åº¦": 4337,
      "57": 4338,
      "yo": 4339,
      "å¯¿": 4340,
      "ulin": 4341,
      "cu": 4342,
      "æĭľ": 4343,
      "åįıåķĨ": 4344,
      "å«¡åŃĲ": 4345,
      "ä¸Ģéĥ¨åĪĨ": 4346,
      "å²Ĺ": 4347,
      "è°ĥèĬĤ": 4348,
      "neg": 4349,
      "èµĦæľ¬ä¸»ä¹ī": 4350,
      "åĬĿ": 4351,
      "å¿½": 4352,
      "éħ¶": 4353,
      "éĤ»": 4354,
      "acid": 4355,
      "å°ıçĶ°åİŁ": 4356,
      "LA": 4357,
      "çī©æµģ": 4358,
      "è½¬è®©": 4359,
      "åŁºåľ°": 4360,
      "å¦ĩ": 4361,
      "è·¯çº¿": 4362,
      "æĶ¶éĽĨ": 4363,
      "review": 4364,
      "çķª": 4365,
      "ä¸Ĭåįĩ": 4366,
      "èĥ¤": 4367,
      "æ¯«": 4368,
      "è¾¨": 4369,
      "å·©åĽº": 4370,
      "æģĲ": 4371,
      "åŁ¹èĤ²": 4372,
      "vit": 4373,
      "mpto": 4374,
      "æĶ¿å®Ĺ": 4375,
      "èĢķ": 4376,
      "åĬ©äºİ": 4377,
      "å¹´éĹ´": 4378,
      "though": 4379,
      "ä¸įåĨį": 4380,
      "èªī": 4381,
      "while": 4382,
      "å¼ºåĪ¶": 4383,
      "èĥľèµĸ": 4384,
      "çĶŁæĪĲ": 4385,
      "è´·æ¬¾": 4386,
      "ities": 4387,
      "è¥¿åĨĽ": 4388,
      "sensi": 4389,
      "nucle": 4390,
      "about": 4391,
      "among": 4392,
      "åį³ä½¿": 4393,
      "PS": 4394,
      "æĹ¦": 4395,
      "èĻļæĭŁ": 4396,
      "havi": 4397,
      "ft": 4398,
      "åĨ¬": 4399,
      "è½¬æį¢": 4400,
      "äºĭçī©": 4401,
      "åĽ¾åĥı": 4402,
      "è¢«åĳĬ": 4403,
      "é¢ģ": 4404,
      "MA": 4405,
      "åıĻ": 4406,
      "è¿Ŀåıį": 4407,
      "è£ķ": 4408,
      "ord": 4409,
      "vention": 4410,
      "pression": 4411,
      "æķ¢": 4412,
      "è¿ĽèĢĮ": 4413,
      "ä¸įä¹ħ": 4414,
      "éģŃåĪ°": 4415,
      "represent": 4416,
      "58": 4417,
      "æĶ¯éħį": 4418,
      "spital": 4419,
      "åıĺéĩı": 4420,
      "æ¿ĢåĬ±": 4421,
      "åĲ¸æĶ¶": 4422,
      "æķ°æį®åºĵ": 4423,
      "primary": 4424,
      "è®¸åı¯": 4425,
      "èĬĤçĤ¹": 4426,
      "å£ģ": 4427,
      "NP": 4428,
      "åĲĮæĦı": 4429,
      "å¹¿å¤§": 4430,
      "ç»ıæµİç¤¾ä¼ļ": 4431,
      "should": 4432,
      "ä¸ĬæĿīè°¦ä¿¡": 4433,
      "IS": 4434,
      "ãģ®": 4435,
      "åħŃè§Ĵ": 4436,
      "transcrip": 4437,
      "å£®": 4438,
      "è®¯": 4439,
      "æ´ģ": 4440,
      "äº®": 4441,
      "åı³åį«": 4442,
      "ator": 4443,
      "æī§æ³ķ": 4444,
      "å¤Ħç½ļ": 4445,
      "2018": 4446,
      "åĪĬ": 4447,
      "æĿĥå¨ģ": 4448,
      "å¾ģä¼Ĳ": 4449,
      "ä»£çĲĨ": 4450,
      "resist": 4451,
      "many": 4452,
      "DP": 4453,
      "PCR": 4454,
      "amet": 4455,
      "Me": 4456,
      "56": 4457,
      "ä»°": 4458,
      "differenti": 4459,
      "whe": 4460,
      "jor": 4461,
      "lymp": 4462,
      "ä¸Ģå¹´": 4463,
      "å¤±åİ»": 4464,
      "2017": 4465,
      "éĿ¢ç§¯": 4466,
      "å¤§å¤ļæķ°": 4467,
      "è´´": 4468,
      "åģļåĪ°": 4469,
      "ger": 4470,
      "åī©": 4471,
      "expo": 4472,
      "ä¸ĢåĲĳ": 4473,
      "ences": 4474,
      "All": 4475,
      "å¤§è§Ħæ¨¡": 4476,
      "å¥ĳ": 4477,
      "æ¶Īæģ¯": 4478,
      "é¢Ħéĺ²": 4479,
      "çº¦æĿŁ": 4480,
      "did": 4481,
      "EC": 4482,
      "è¾īåħĥ": 4483,
      "å°¿": 4484,
      "åīįçĶ°": 4485,
      "promo": 4486,
      "è¿ĲèĲ¥": 4487,
      "tivity": 4488,
      "due": 4489,
      "evidence": 4490,
      "second": 4491,
      "oral": 4492,
      "å¤§åĬĽ": 4493,
      "early": 4494,
      "vere": 4495,
      "ä¸Ŀ": 4496,
      "çĮĽ": 4497,
      "éĽ·": 4498,
      "çİ°æľī": 4499,
      "æĻ¶": 4500,
      "following": 4501,
      "çģŃäº¡": 4502,
      "çĸ«æĥħ": 4503,
      "åħ³èģĶ": 4504,
      "å¾·åĽ½": 4505,
      "æİĺ": 4506,
      "å¯ĨåĪĩ": 4507,
      "BM": 4508,
      "çīĽ": 4509,
      "çº¸": 4510,
      "å¤±è´¥": 4511,
      "same": 4512,
      "would": 4513,
      "ç§¦": 4514,
      "å°ĳæķ°": 4515,
      "2021": 4516,
      "prof": 4517,
      "çīĻ": 4518,
      "æĹ©å·Ŀ": 4519,
      "çŃīçŃī": 4520,
      "æľ¬æĦ¿": 4521,
      "æĥŁ": 4522,
      "åŃ©": 4523,
      "æ£ĢéªĮ": 4524,
      "down": 4525,
      "RT": 4526,
      "children": 4527,
      "ä¿¡æģ¯åĮĸ": 4528,
      "æī§æĶ¿": 4529,
      "ä¾ĿéĿł": 4530,
      "é¡¿": 4531,
      "value": 4532,
      "åĪĨç¦»": 4533,
      "åħ¶æ¬¡": 4534,
      "ï¼į": 4535,
      "çĶ¨äºº": 4536,
      "ä¸½": 4537,
      "æľ¬æĦ¿å¯º": 4538,
      "ult": 4539,
      "æķĪçĽĬ": 4540,
      "omen": 4541,
      "å´ĩ": 4542,
      "èį·": 4543,
      "éĿ¢åĲĳ": 4544,
      "versity": 4545,
      "mg": 4546,
      "ç²®é£Ł": 4547,
      "æĸĩåŃĹ": 4548,
      "genic": 4549,
      "ç¼´": 4550,
      "æĶ¹è¿Ľ": 4551,
      "åħ±åĲĮä½ĵ": 4552,
      "without": 4553,
      "å¯¼åĲĳ": 4554,
      "values": 4555,
      "æ¡ĥå±±": 4556,
      "mus": 4557,
      "auth": 4558,
      "lung": 4559,
      "åĳ½è¿Ĳ": 4560,
      "å¯¹æŃ¤": 4561,
      "bl": 4562,
      "å¤§å°ı": 4563,
      "2016": 4564,
      "é¥°": 4565,
      "uction": 4566,
      "ä¸¾è¡Į": 4567,
      "çħ¤": 4568,
      "å¹´äºº": 4569,
      "å¨ģèĥģ": 4570,
      "cir": 4571,
      "clo": 4572,
      "behavi": 4573,
      "findings": 4574,
      "month": 4575,
      "åĬĽåº¦": 4576,
      "ä¸īæĺ¯": 4577,
      "respectively": 4578,
      "complex": 4579,
      "æĪĲçĨŁ": 4580,
      "examin": 4581,
      "major": 4582,
      "compar": 4583,
      "metabol": 4584,
      "éĺŁä¼į": 4585,
      "direct": 4586,
      "99": 4587,
      "ä½Ĳç«¹": 4588,
      "trial": 4589,
      "genetic": 4590,
      "ç»ĦåĲĪ": 4591,
      "æ»¨": 4592,
      "èµ°åĲĳ": 4593,
      "æ¿Ģåıĳ": 4594,
      "psy": 4595,
      "like": 4596,
      "éĴŁ": 4597,
      "pan": 4598,
      "described": 4599,
      "é¦ĸæ¬¡": 4600,
      "å¸¸è§ģ": 4601,
      "CS": 4602,
      "åĬłä»¥": 4603,
      "åı¯éĿł": 4604,
      "ä½ĵèĤ²": 4605,
      "éĢļçŁ¥": 4606,
      "æķĪåĬĽ": 4607,
      "å¦Ļ": 4608,
      "active": 4609,
      "è±Ĩ": 4610,
      "ç¾½æŁ´ç§ĢåĲī": 4611,
      "èĸĦ": 4612,
      "åľŁå£¤": 4613,
      "influ": 4614,
      "IT": 4615,
      "è·Ŀç¦»": 4616,
      "chron": 4617,
      "ä¼łè¾ĵ": 4618,
      "æĸ©": 4619,
      "wee": 4620,
      "åıªè¦ģ": 4621,
      "å°ıæĹ©å·Ŀ": 4622,
      "ä¸ĢæĹı": 4623,
      "state": 4624,
      "å±±åĲį": 4625,
      "å¯¹åºĶ": 4626,
      "èĭĹ": 4627,
      "æĪª": 4628,
      "æľŁéĻĲ": 4629,
      "2019": 4630,
      "åħĥç´ł": 4631,
      "æİ¨å¹¿": 4632,
      "åĪ©çİĩ": 4633,
      "åĪĴåĪĨ": 4634,
      "PP": 4635,
      "èĥ½éĩı": 4636,
      "matory": 4637,
      "å¥Ī": 4638,
      "å®¡åĪ¤": 4639,
      "2015": 4640,
      "åįĴ": 4641,
      "occur": 4642,
      "ä¸Ģä»£": 4643,
      "çĶŁåŃĺ": 4644,
      "vide": 4645,
      "èµ¶": 4646,
      "å½¢è±¡": 4647,
      "èķ": 4648,
      "æĶ»æīĵ": 4649,
      "ä¸ĢçĤ¹": 4650,
      "è§Ĵèī²": 4651,
      "å²³": 4652,
      "éĽĨæĪĲ": 4653,
      "OR": 4654,
      "æ¡ĥå±±æĹ¶ä»£": 4655,
      "æĹħæ¸¸": 4656,
      "fam": 4657,
      "æĭĶ": 4658,
      "åĪĽä½ľ": 4659,
      "è´Ńä¹°": 4660,
      "HIV": 4661,
      "ä¸ľè¥¿": 4662,
      "day": 4663,
      "acti": 4664,
      "ow": 4665,
      "å¹¶æľª": 4666,
      "è¿ĳå¹´æĿ¥": 4667,
      "æ²¼": 4668,
      "æ°¸æŃ£": 4669,
      "åĪ©æ¶¦": 4670,
      "æ´»æĢ§": 4671,
      "design": 4672,
      "til": 4673,
      "äººåĬĽ": 4674,
      "LC": 4675,
      "ç§»åĬ¨": 4676,
      "diab": 4677,
      "ä¹Ļ": 4678,
      "ç¦ģæŃ¢": 4679,
      "é¥Ń": 4680,
      "æīĢå¾Ĺ": 4681,
      "ç»ıå¸¸": 4682,
      "Uni": 4683,
      "eu": 4684,
      "éĢĿ": 4685,
      "éĻĦè¿ĳ": 4686,
      "è§£éĻ¤": 4687,
      "éģµå¾ª": 4688,
      "ä½³": 4689,
      "åĲĮçĽŁ": 4690,
      "åĩºèº«": 4691,
      "ä»·åĢ¼è§Ĥ": 4692,
      "æĪĳéĥ¨": 4693,
      "åĤ¬": 4694,
      "å¤§åĨĽ": 4695,
      "äºĭé¡¹": 4696,
      "åįķåħĥ": 4697,
      "å§¬": 4698,
      "å°Ĭéĩį": 4699,
      "ç¬ł": 4700,
      "logy": 4701,
      "æľ¬èĥ½": 4702,
      "ety": 4703,
      "ç»ĵè®º": 4704,
      "æľīåĬ©äºİ": 4705,
      "åīĬ": 4706,
      "åħļåĴĮ": 4707,
      "åħĪåĲİ": 4708,
      "éĺª": 4709,
      "æ³¨åĨĮ": 4710,
      "ä¸ĭæĿ¥": 4711,
      "è¡£": 4712,
      "avail": 4713,
      "æĿ¡æ¬¾": 4714,
      "åı¬å¼Ģ": 4715,
      "è¡¥åģ¿": 4716,
      "çĶŁéķ¿": 4717,
      "whether": 4718,
      "è¿Ľå±ķ": 4719,
      "æľīäºº": 4720,
      "right": 4721,
      "ç»Ŀå¯¹": 4722,
      "å®īèīº": 4723,
      "ç»ĩçĶ°ä¿¡": 4724,
      "æ´»è·ĥ": 4725,
      "correl": 4726,
      "éĢ¼": 4727,
      "èĤ¯": 4728,
      "èµ´": 4729,
      "differences": 4730,
      "culture": 4731,
      "ä¸§": 4732,
      "éĤ£äºĽ": 4733,
      "oma": 4734,
      "æºĥ": 4735,
      "å¹¼åĦ¿": 4736,
      "ade": 4737,
      "ç´łåħ»": 4738,
      "èĩªè§ī": 4739,
      "å®īåľŁæ¡ĥå±±æĹ¶ä»£": 4740,
      "è°ģ": 4741,
      "AL": 4742,
      "å¥ı": 4743,
      "auto": 4744,
      "HC": 4745,
      "éª¤": 4746,
      "ditions": 4747,
      "è¾ĵåħ¥": 4748,
      "SS": 4749,
      "æĭĵå±ķ": 4750,
      "éĿŀæ³ķ": 4751,
      "æĥ©": 4752,
      "è¯ģåĪ¸": 4753,
      "79": 4754,
      "acc": 4755,
      "éĻ·åħ¥": 4756,
      "èĤī": 4757,
      "66": 4758,
      "ward": 4759,
      "éķ¿å®Ĺ": 4760,
      "é©¾": 4761,
      "è¾ĵåĩº": 4762,
      "æĪĲéķ¿": 4763,
      "sympto": 4764,
      "molec": 4765,
      "åĮ¹": 4766,
      "æĸ¹éĴĪ": 4767,
      "æĻĭ": 4768,
      "sin": 4769,
      "inflammatory": 4770,
      "ways": 4771,
      "å¤§éĥ¨åĪĨ": 4772,
      "åĲĦèĩª": 4773,
      "å¢ĵ": 4774,
      "ately": 4775,
      "èī°": 4776,
      "å¤ļæ¬¡": 4777,
      "lished": 4778,
      "åħ´è¶£": 4779,
      "åį¿": 4780,
      "é¥®": 4781,
      "æŁĲç§į": 4782,
      "å¤§åĴĮ": 4783,
      "ä¹ĭåıĺ": 4784,
      "æ°¢": 4785,
      "mit": 4786,
      "æľīäºĽ": 4787,
      "ä¸ºä»Ģä¹Ī": 4788,
      "æĻ¯èĥľ": 4789,
      "miR": 4790,
      "åŀĦ": 4791,
      "éĩĳå±ŀ": 4792,
      "è¯¾é¢ĺ": 4793,
      "nal": 4794,
      "enz": 4795,
      "éķ¿å®ĹæĪĳéĥ¨": 4796,
      "gu": 4797,
      "è¿Ł": 4798,
      "tox": 4799,
      "æī©å±ķ": 4800,
      "ä½¿åĳ½": 4801,
      "å§Ķæīĺ": 4802,
      "defin": 4803,
      "äºĭæķħ": 4804,
      "animal": 4805,
      "enh": 4806,
      "æĳĨ": 4807,
      "èĭ¥å¹²": 4808,
      "left": 4809,
      "éĢĤå½ĵ": 4810,
      "éģĹäº§": 4811,
      "equ": 4812,
      "collec": 4813,
      "åĪ¤åĨ³": 4814,
      "åħµåį«": 4815,
      "æĸĩç¦Ħ": 4816,
      "adi": 4817,
      "ann": 4818,
      "ä¼¸": 4819,
      "äº¿åħĥ": 4820,
      "å¡Ķ": 4821,
      "çĶµæ±ł": 4822,
      "De": 4823,
      "âī": 4824,
      "æĥħæĦŁ": 4825,
      "äº«æľī": 4826,
      "thelial": 4827,
      "çĵ¦": 4828,
      "ei": 4829,
      "conditions": 4830,
      "è¾ĥä¸º": 4831,
      "æī£": 4832,
      "æĹ¥å¸¸": 4833,
      "reduced": 4834,
      "play": 4835,
      "æ°ĳéĹ´": 4836,
      "regulation": 4837,
      "loc": 4838,
      "models": 4839,
      "æŁ³": 4840,
      "èµ¢": 4841,
      "çĲĨçĶ±": 4842,
      "64": 4843,
      "æĸ°éĹ»": 4844,
      "æ¨¡åĿĹ": 4845,
      "åŀĦæĸŃ": 4846,
      "çĶĺ": 4847,
      "sugges": 4848,
      "59": 4849,
      "é±": 4850,
      "æģ°": 4851,
      "gl": 4852,
      "2000": 4853,
      "çīµ": 4854,
      "ç§¯ç´¯": 4855,
      "æĪĺåľº": 4856,
      "ç»ª": 4857,
      "ä¸įå°ĳ": 4858,
      "contr": 4859,
      "è¡Ģç®¡": 4860,
      "material": 4861,
      "é±¼": 4862,
      "çº¤": 4863,
      "å¢¨": 4864,
      "yn": 4865,
      "signaling": 4866,
      "ç¬¬ä¸Ģæ¬¡": 4867,
      "72": 4868,
      "net": 4869,
      "è¡¥åħħ": 4870,
      "dist": 4871,
      "åħ»èĢģ": 4872,
      "Health": 4873,
      "HD": 4874,
      "åĨħåľ¨": 4875,
      "è¿ĳä»£": 4876,
      "åĲĦé¡¹": 4877,
      "è°ĥæİ§": 4878,
      "æī¹åĩĨ": 4879,
      "æ¨¡æĭŁ": 4880,
      "æ¬¢": 4881,
      "èµł": 4882,
      "hel": 4883,
      "survival": 4884,
      "åĩ¡": 4885,
      "æķħäºĭ": 4886,
      "å»ī": 4887,
      "Di": 4888,
      "èĥľå®¶": 4889,
      "stic": 4890,
      "æīĵéĢł": 4891,
      "å¼Ĥå¸¸": 4892,
      "èĦı": 4893,
      "æĺ¯åĽłä¸º": 4894,
      "æİ¢è®¨": 4895,
      "å¼ºåĽ½": 4896,
      "150": 4897,
      "emp": 4898,
      "160": 4899,
      "äººæīįåŁ¹åħ»": 4900,
      "çŁ©": 4901,
      "ism": 4902,
      "obtained": 4903,
      "isol": 4904,
      "ä¹īåħĥ": 4905,
      "äºĴåĬ¨": 4906,
      "å¿į": 4907,
      "ç¬¬åħŃ": 4908,
      "åįĹéĥ¨": 4909,
      "ä¹ĭéĻħ": 4910,
      "æī«": 4911,
      "çĶŁäº§åĬĽ": 4912,
      "èĥ¡": 4913,
      "èĦļ": 4914,
      "å®ŀéªĮå®¤": 4915,
      "èĢĥæł¸": 4916,
      "presence": 4917,
      "å¥¹": 4918,
      "äº²èĩª": 4919,
      "days": 4920,
      "included": 4921,
      "åĹ£": 4922,
      "come": 4923,
      "èĩªä¿¡": 4924,
      "æĪĺåĲİ": 4925,
      "lik": 4926,
      "erence": 4927,
      "åĳĺå·¥": 4928,
      "recent": 4929,
      "é²ģ": 4930,
      "æľĢåĪĿ": 4931,
      "æľ¬èĥ½å¯º": 4932,
      "lifer": 4933,
      "æī¿è®¤": 4934,
      "52": 4935,
      "range": 4936,
      "éªĮè¯ģ": 4937,
      "æľªèĥ½": 4938,
      "binding": 4939,
      "æĢĴ": 4940,
      "æĭ¿": 4941,
      "åĵįåºĶ": 4942,
      "51": 4943,
      "BS": 4944,
      "éĽħ": 4945,
      "ä¸Ģè·¯": 4946,
      "medical": 4947,
      "çĶµåĬĽ": 4948,
      "åľºæĻ¯": 4949,
      "åİŁæľ¬": 4950,
      "ä¼ª": 4951,
      "äººå¤§": 4952,
      "æ¿ĳ": 4953,
      "è¯ķåĽ¾": 4954,
      "åıĳè¡Į": 4955,
      "rat": 4956,
      "åħ¨ä¼ļ": 4957,
      "Sup": 4958,
      "éĺģ": 4959,
      "èĢ³": 4960,
      "period": 4961,
      "å°ģå»º": 4962,
      "diagnosis": 4963,
      "å¦¹": 4964,
      "å¼Łå¼Ł": 4965,
      "éĶģ": 4966,
      "æĬµæĬ¼": 4967,
      "54": 4968,
      "å¥ł": 4969,
      "æŀ¶æŀĦ": 4970,
      "transp": 4971,
      "éĴ¢": 4972,
      "single": 4973,
      "negative": 4974,
      "èĦĤ": 4975,
      "expressed": 4976,
      "ml": 4977,
      "åıĳåĩº": 4978,
      "particular": 4979,
      "å¤§éĺª": 4980,
      "å°Ĭæ°ı": 4981,
      "Ne": 4982,
      "æĮĤ": 4983,
      "phosph": 4984,
      "çĶµè·¯": 4985,
      "åįıåĬ©": 4986,
      "phys": 4987,
      "èĤ¡æĿĥ": 4988,
      "ä»¥åīį": 4989,
      "æŁ±": 4990,
      "ä»Ĭå¤©": 4991,
      "ç«ĭåľº": 4992,
      "face": 4993,
      "çķ¿": 4994,
      "é¢Ħç®Ĺ": 4995,
      "åĵĪ": 4996,
      "77": 4997,
      "èĥ¶": 4998,
      "local": 4999,
      "äº¤æĪĺ": 5000,
      "æŀģå¤§": 5001,
      "å±ħä½ı": 5002,
      "change": 5003,
      "èĥĢ": 5004,
      "å¼ķåħ¥": 5005,
      "Tr": 5006,
      "mRNA": 5007,
      "æĿ¡ä¾ĭ": 5008,
      "æīİ": 5009,
      "ä¸ªäººä¿¡æģ¯": 5010,
      "ä¼łæĦŁ": 5011,
      "because": 5012,
      "é»ĳçĶ°": 5013,
      "å¹³å®ļ": 5014,
      "vs": 5015,
      "åĢ¼å¾Ĺ": 5016,
      "ä½ľä¸ļ": 5017,
      "genesis": 5018,
      "èĳĹåĲį": 5019,
      "åľĪ": 5020,
      "ç«ĭåį³": 5021,
      "ä¾Ŀçħ§": 5022,
      "èĢĥå¯Ł": 5023,
      "æ¾³": 5024,
      "size": 5025,
      "63": 5026,
      "ä¸ĩåħĥ": 5027,
      "é¢ĦæľŁ": 5028,
      "prolifer": 5029,
      "independent": 5030,
      "AS": 5031,
      "NS": 5032,
      "æĬµæĬĹ": 5033,
      "xim": 5034,
      "ä½ĵéªĮ": 5035,
      "æĥĬ": 5036,
      "å±ķç¤º": 5037,
      "å·¥äºº": 5038,
      "acy": 5039,
      "quanti": 5040,
      "ä¸Ģæī¹": 5041,
      "several": 5042,
      "èļ": 5043,
      "ä¹łæĥ¯": 5044,
      "side": 5045,
      "provide": 5046,
      "åŃ¤": 5047,
      "2014": 5048,
      "ç¦»å¼Ģ": 5049,
      "measured": 5050,
      "case": 5051,
      "MO": 5052,
      "æĢĿè·¯": 5053,
      "éķ¿åŃĲ": 5054,
      "åĳ¨è¾¹": 5055,
      "uted": 5056,
      "è®¿éĹ®": 5057,
      "åħĪéĶĭ": 5058,
      "å½»åºķ": 5059,
      "oper": 5060,
      "pattern": 5061,
      "sit": 5062,
      "æ¸łéģĵ": 5063,
      "involved": 5064,
      "again": 5065,
      "åħ«æľĪ": 5066,
      "ç¤ºèĮĥ": 5067,
      "mechanisms": 5068,
      "æŁ´çĶ°": 5069,
      "statis": 5070,
      "å·¥èµĦ": 5071,
      "åĬłéĢŁ": 5072,
      "äº«å¹´": 5073,
      "åĵªäºĽ": 5074,
      "Ca": 5075,
      "bodies": 5076,
      "çĶ¨äººåįķä½į": 5077,
      "TR": 5078,
      "500": 5079,
      "ä¸ĢéĹ¨": 5080,
      "neurons": 5081,
      "æ¹¿": 5082,
      "æĸ¯æ³¢": 5083,
      "åħŃæľĪ": 5084,
      "èĳĹä½ľ": 5085,
      "å¯Įè£ķ": 5086,
      "å¼ºåº¦": 5087,
      "æ²³åĨħ": 5088,
      "åħ¨ä½ĵ": 5089,
      "æĺİæĻºåħīç§Ģ": 5090,
      "èµĽ": 5091,
      "åĪĳæ³ķ": 5092,
      "æ¸Ĺ": 5093,
      "å¥Ķ": 5094,
      "ked": 5095,
      "serum": 5096,
      "æĤī": 5097,
      "çº¹": 5098,
      "support": 5099,
      "æ´»åĬĽ": 5100,
      "multiple": 5101,
      "éģĹä¼ł": 5102,
      "ç§Ģå¿ł": 5103,
      "é¹¿": 5104,
      "æĿĨ": 5105,
      "æ··åĲĪ": 5106,
      "ä¼łæī¿": 5107,
      "éľ¸": 5108,
      "ä¼Ļ": 5109,
      "BP": 5110,
      "ç®Ń": 5111,
      "bal": 5112,
      "prot": 5113,
      "how": 5114,
      "ä¸ĢæĹ¦": 5115,
      "æĸ°åħ´": 5116,
      "88": 5117,
      "membr": 5118,
      "âĳł": 5119,
      "æĦĪ": 5120,
      "åıĳèµ·": 5121,
      "popto": 5122,
      "çĶŁæĢģçİ¯å¢ĥ": 5123,
      "è½´": 5124,
      "çŁ³çĶ°": 5125,
      "Af": 5126,
      "graph": 5127,
      "ä¸įè¯¦": 5128,
      "rece": 5129,
      "ç¥ŀç¤¾": 5130,
      "åŃ©åŃĲ": 5131,
      "çĻ¾å§ĵ": 5132,
      "sample": 5133,
      "ily": 5134,
      "å½¼": 5135,
      "University": 5136,
      "åĪ¶ä½ľ": 5137,
      "ç¦ħ": 5138,
      "ä»£è¡¨å¤§ä¼ļ": 5139,
      "æķ¬": 5140,
      "ults": 5141,
      "åĬłä¸Ĭ": 5142,
      "73": 5143,
      "æĴ¤éĢĢ": 5144,
      "mation": 5145,
      "æŃ£å½ĵ": 5146,
      "vant": 5147,
      "åĬłè´º": 5148,
      "é¦Ļæ¸¯": 5149,
      "En": 5150,
      "ç²¾åĩĨ": 5151,
      "Further": 5152,
      "æĶ¯åĩº": 5153,
      "large": 5154,
      "luco": 5155,
      "è²": 5156,
      "æİ¢ç©¶": 5157,
      "ä¸įåĪ©": 5158,
      "ç»Īäºİ": 5159,
      "ä¿¡æģ¯æĬĢæľ¯": 5160,
      "ound": 5161,
      "62": 5162,
      "æİī": 5163,
      "ï½ŀ": 5164,
      "gly": 5165,
      "ams": 5166,
      "çģĮ": 5167,
      "class": 5168,
      "éī´å®ļ": 5169,
      "æĽ´æĸ°": 5170,
      "functional": 5171,
      "æĸ½å·¥": 5172,
      "ics": 5173,
      "71": 5174,
      "interest": 5175,
      "ä¸ľåĨĽ": 5176,
      "demonstrated": 5177,
      "äºĶæľĪ": 5178,
      "åį±å®³": 5179,
      "æĮĩå®ļ": 5180,
      "before": 5181,
      "å°ıç»Ħ": 5182,
      "çĤ¼": 5183,
      "ç´§å¯Ĩ": 5184,
      "åĲīå·Ŀ": 5185,
      "èĳ£": 5186,
      "ç»©æķĪ": 5187,
      "LD": 5188,
      "åĲİæľŁ": 5189,
      "perform": 5190,
      "els": 5191,
      "IR": 5192,
      "æĮĸ": 5193,
      "Ig": 5194,
      "ç¦»åŃĲ": 5195,
      "åĢºæĿĥäºº": 5196,
      "stress": 5197,
      "å°ļæľª": 5198,
      "85": 5199,
      "available": 5200,
      "åĮºåĪĨ": 5201,
      "py": 5202,
      "å±±åĨħ": 5203,
      "either": 5204,
      "standard": 5205,
      "é«ĺçº§": 5206,
      "ä¸ľåĮĹ": 5207,
      "veal": 5208,
      "atus": 5209,
      "GT": 5210,
      "2013": 5211,
      "è¯¦ç»Ĩ": 5212,
      "æĶ»éĻ·": 5213,
      "çĳŀ": 5214,
      "éº»": 5215,
      "previously": 5216,
      "çĨĬ": 5217,
      "å¥³åĦ¿": 5218,
      "æĽ¿ä»£": 5219,
      "çĿĢåĬĽ": 5220,
      "verse": 5221,
      "ä»¥æŃ¤": 5222,
      "death": 5223,
      "èģĮåĬ¡": 5224,
      "pathway": 5225,
      "æľ¬äºº": 5226,
      "æ¦": 5227,
      "åĶ¯ä¸Ģ": 5228,
      "å¿Ĩ": 5229,
      "å¤·": 5230,
      "ä¼¦çĲĨ": 5231,
      "å®¶èĢģ": 5232,
      "ä¸ĥæľĪ": 5233,
      "liver": 5234,
      "å«ģ": 5235,
      "è¡Ĺ": 5236,
      "å¸Ĥåľºç»ıæµİ": 5237,
      "åĲįä¹ī": 5238,
      "thesis": 5239,
      "PT": 5240,
      "æµģéĢļ": 5241,
      "diseases": 5242,
      "ori": 5243,
      "æĦıæĢĿ": 5244,
      "conduc": 5245,
      "ç§ĺå¯Ĩ": 5246,
      "èµ¤æĿ¾": 5247,
      "distrib": 5248,
      "äºĭæĥħ": 5249,
      "çĭ¬çī¹": 5250,
      "è¶Ĭä¸Ń": 5251,
      "èĢĥè¯ķ": 5252,
      "ä¸Ģä½ĵåĮĸ": 5253,
      "æĳĦæ´¥": 5254,
      "èĴ²": 5255,
      "appe": 5256,
      "glo": 5257,
      "è¶ģ": 5258,
      "abs": 5259,
      "ç»§æī¿äºº": 5260,
      "identify": 5261,
      "pi": 5262,
      "âĳ¡": 5263,
      "mine": 5264,
      "åĢ¾åĲĳ": 5265,
      "apopto": 5266,
      "ä¸»è§Ĥ": 5267,
      "term": 5268,
      "ample": 5269,
      "æ¶ĪéĻ¤": 5270,
      "æ¬¡åŃĲ": 5271,
      "å±ĢéĿ¢": 5272,
      "ä¿®å¤į": 5273,
      "ä¸Ģåº¦": 5274,
      "techn": 5275,
      "åħĥé¾Ł": 5276,
      "è±ªæĹı": 5277,
      "anced": 5278,
      "åľ°çĲĥ": 5279,
      "åĲ¯åĬ¨": 5280,
      "çĹĩçĬ¶": 5281,
      "responses": 5282,
      "IN": 5283,
      "rati": 5284,
      "æĻ°": 5285,
      "ç¬ĶèĢħ": 5286,
      "èħº": 5287,
      "lation": 5288,
      "mouse": 5289,
      "imaging": 5290,
      "åŃ¦å®¶": 5291,
      "æĪ¿å±ĭ": 5292,
      "åħħåĪĨåıĳæĮ¥": 5293,
      "61": 5294,
      "result": 5295,
      "epi": 5296,
      "åĮºåĿĹ": 5297,
      "åĩºçīĪç¤¾": 5298,
      "æĶ¿åĬ¡": 5299,
      "ä¸įæ»¡": 5300,
      "etes": 5301,
      "æĪĺå½¹": 5302,
      "åĪĩå®ŀ": 5303,
      "éħįåĲĪ": 5304,
      "ä¸Ģä½į": 5305,
      "éħ¬": 5306,
      "è¿Ļæ¬¡": 5307,
      "åĽŀåĪ°": 5308,
      "ä¸ºæŃ¤": 5309,
      "è£ħå¤ĩ": 5310,
      "æĶ¾å¼ĥ": 5311,
      "adj": 5312,
      "åĸľå¤ļ": 5313,
      "æĺ¯ä»İ": 5314,
      "artic": 5315,
      "åıĺæĪĲ": 5316,
      "ä¹³": 5317,
      "æŃ¦èĹı": 5318,
      "cellular": 5319,
      "è¯ķçĤ¹": 5320,
      "paramet": 5321,
      "èĪį": 5322,
      "allow": 5323,
      "ä¾ĽåºĶéĵ¾": 5324,
      "inten": 5325,
      "ector": 5326,
      "èµĦæł¼": 5327,
      "gluco": 5328,
      "è¯ŀ": 5329,
      "æıŃç¤º": 5330,
      "æ»ŀ": 5331,
      "å¤ĦåĪĨ": 5332,
      "reveal": 5333,
      "chronic": 5334,
      "æī¿åĮħ": 5335,
      "æİ¥è§¦": 5336,
      "æķĮäºº": 5337,
      "æ¸ħæ¥ļ": 5338,
      "experiments": 5339,
      "å®¡çĲĨ": 5340,
      "immuno": 5341,
      "characteris": 5342,
      "actions": 5343,
      "æī¾åĪ°": 5344,
      "èģĶåĨĽ": 5345,
      "methods": 5346,
      "éªĹ": 5347,
      "being": 5348,
      "åīįåĲİ": 5349,
      "å´©": 5350,
      "pur": 5351,
      "ä¸įåĪ°": 5352,
      "æı´åĨĽ": 5353,
      "é¾ĻéĢł": 5354,
      "é¾ĻéĢłå¯º": 5355,
      "ä¹ĿæľĪ": 5356,
      "bar": 5357,
      "ä¸īæľĪ": 5358,
      "éĢĤåĲĪ": 5359,
      "viron": 5360,
      "äºĭå®ŀä¸Ĭ": 5361,
      "èĢĲ": 5362,
      "å¼ºçĥĪ": 5363,
      "æĶ¹åĲį": 5364,
      "ques": 5365,
      "åĬŀçĲĨ": 5366,
      "æĬ½è±¡": 5367,
      "ions": 5368,
      "mu": 5369,
      "æ¥¼": 5370,
      "æ¢ħ": 5371,
      "åĽłåŃĲ": 5372,
      "aren": 5373,
      "program": 5374,
      "ä¿¡ä»°": 5375,
      "ED": 5376,
      "åīįè¿Ľ": 5377,
      "åį«æĺŁ": 5378,
      "å·§": 5379,
      "æİĪæĿĥ": 5380,
      "ied": 5381,
      "è¿Ŀçº¦": 5382,
      "éĻ¢æł¡": 5383,
      "ç¿Įå¹´": 5384,
      "æĲľ": 5385,
      "çĽĳå¯Ł": 5386,
      "ä¸»ç®¡": 5387,
      "æ²ŁéĢļ": 5388,
      "son": 5389,
      "å¤§å®¶": 5390,
      "insulin": 5391,
      "çªģçĦ¶": 5392,
      "consid": 5393,
      "PR": 5394,
      "bio": 5395,
      "åħ¨åħļ": 5396,
      "åħ¥ä¾µ": 5397,
      "inu": 5398,
      "ä»ķäºİ": 5399,
      "women": 5400,
      "æĽ´æĺ¯": 5401,
      "æĿ¨": 5402,
      "relations": 5403,
      "CF": 5404,
      "æĹłæķĪ": 5405,
      "improve": 5406,
      "NO": 5407,
      "2012": 5408,
      "Im": 5409,
      "åĬ³åĬ¨åĬĽ": 5410,
      "æµ®": 5411,
      "èĥĨ": 5412,
      "æİ¥è¿ĳ": 5413,
      "Comp": 5414,
      "possible": 5415,
      "ä¸ģ": 5416,
      "pti": 5417,
      "subjects": 5418,
      "åĪĿæŃ¥": 5419,
      "åĪ¶çº¦": 5420,
      "authors": 5421,
      "å¤§å¹ħ": 5422,
      "åħĥå°±": 5423,
      "æ¯ĽåĪ©åħĥå°±": 5424,
      "HR": 5425,
      "èĤ¾": 5426,
      "åįĹåĮĹ": 5427,
      "æŃ¥éª¤": 5428,
      "éº¾": 5429,
      "ä¼łæĦŁåĻ¨": 5430,
      "might": 5431,
      "æ¯ķä¸ļ": 5432,
      "è²Į": 5433,
      "å±ħåŁİ": 5434,
      "ç¥Ĳ": 5435,
      "æ³ķäºº": 5436,
      "çĽ¸ä¼¼": 5437,
      "point": 5438,
      "æ´Ĺ": 5439,
      "åĩ»è´¥": 5440,
      "Cell": 5441,
      "understand": 5442,
      "è¿ľæ±Ł": 5443,
      "èįĲ": 5444,
      "flow": 5445,
      "èĻ«": 5446,
      "æĢİæł·": 5447,
      "åĪ©å®¶": 5448,
      "åĪĨè£Ĥ": 5449,
      "åīĳ": 5450,
      "light": 5451,
      "vitro": 5452,
      "ains": 5453,
      "éº¾ä¸ĭ": 5454,
      "oid": 5455,
      "éļ¶": 5456,
      "math": 5457,
      "PC": 5458,
      "åĲĪæĪĲ": 5459,
      "2010": 5460,
      "åįłæľī": 5461,
      "åĲĥ": 5462,
      "ç¼ĸåĪ¶": 5463,
      "æŃ£ä¹ī": 5464,
      "å¤§åŀĭ": 5465,
      "éļĲå±ħ": 5466,
      "ive": 5467,
      "å¼ĵ": 5468,
      "76": 5469,
      "å¤ªéĺ³": 5470,
      "ele": 5471,
      "ä¸īäºº": 5472,
      "æĻ´ä¿¡": 5473,
      "ä½¿èĢħ": 5474,
      "åĲ¸å¼ķ": 5475,
      "ä¾ĿçĦ¶": 5476,
      "ä¸ªæĢ§": 5477,
      "try": 5478,
      "å®ĩåĸľå¤ļ": 5479,
      "è¿ĺè¦ģ": 5480,
      "åĪºæ¿Ģ": 5481,
      "ç¬¬ä¸Ģä¸ª": 5482,
      "å¤Ħç½®": 5483,
      "considered": 5484,
      "åĭĴ": 5485,
      "åģ¶": 5486,
      "omic": 5487,
      "loss": 5488,
      "èį¡": 5489,
      "individuals": 5490,
      "1582": 5491,
      "éĩıåŃĲ": 5492,
      "months": 5493,
      "mediated": 5494,
      "å°ıåº·": 5495,
      "åĽŀå½Ĵ": 5496,
      "å¢Ļ": 5497,
      "èĩ³å°ĳ": 5498,
      "é»ĺ": 5499,
      "tumors": 5500,
      "çŁ¢": 5501,
      "determine": 5502,
      "98": 5503,
      "éķ¿åºĨ": 5504,
      "300": 5505,
      "sus": 5506,
      "pec": 5507,
      "éĺ²å¾¡": 5508,
      "ury": 5509,
      "production": 5510,
      "çŃ¾è®¢": 5511,
      "cing": 5512,
      "å½±åĵįåĬĽ": 5513,
      "åĿļåĨ³": 5514,
      "åĿĬ": 5515,
      "è®ºè¿°": 5516,
      "å·®è·Ŀ": 5517,
      "æĦıå¿Ĺ": 5518,
      "éŀ": 5519,
      "amine": 5520,
      "breast": 5521,
      "aim": 5522,
      "æ³ķåĽ½": 5523,
      "ä¿¡ä»»": 5524,
      "åħĥäº²": 5525,
      "å¯¹æĸ¹": 5526,
      "æºĲèµĸæľĿ": 5527,
      "block": 5528,
      "åĽŀçŃĶ": 5529,
      "likely": 5530,
      "æĢķ": 5531,
      "å¹´é¾Ħ": 5532,
      "æľĢä¸Ĭ": 5533,
      "çķĻä¸ĭ": 5534,
      "æ½ľåľ¨": 5535,
      "ç«ŀäºīåĬĽ": 5536,
      "åİŁå§ĭ": 5537,
      "åıĺæĽ´": 5538,
      "ä¸»åĲĽ": 5539,
      "æ¯ıå¹´": 5540,
      "arr": 5541,
      "participants": 5542,
      "âĢķ": 5543,
      "02": 5544,
      "mission": 5545,
      "BC": 5546,
      "å¡«": 5547,
      "å»ºæŀĦ": 5548,
      "compon": 5549,
      "ä¸ŃéĹ´": 5550,
      "ä¸Ńåħ±ä¸Ńå¤®": 5551,
      "analyzed": 5552,
      "çĥŁ": 5553,
      "assay": 5554,
      "çļĦè¯Ŀ": 5555,
      "è¯¸å¤ļ": 5556,
      "æºĲæ°ı": 5557,
      "eral": 5558,
      "determined": 5559,
      "heart": 5560,
      "ç¼ºéĻ·": 5561,
      "è¯Ī": 5562,
      "four": 5563,
      "æ¼ı": 5564,
      "stit": 5565,
      "åĽĽæľĪ": 5566,
      "åĮ»éĻ¢": 5567,
      "èģĮå·¥": 5568,
      "æĶ¿åħļ": 5569,
      "æłĳç«ĭ": 5570,
      "æĪĺåĽ½å¤§åĲį": 5571,
      "antibody": 5572,
      "docu": 5573,
      "put": 5574,
      "å¹²é¢Ħ": 5575,
      "against": 5576,
      "EGF": 5577,
      "ä»¥å¤ĸ": 5578,
      "hospital": 5579,
      "On": 5580,
      "æİĴéĻ¤": 5581,
      "èĦ±è´«": 5582,
      "è½¬åĲĳ": 5583,
      "æĿĳä¸Ĭ": 5584,
      "äº§ä¸ļéĵ¾": 5585,
      "å¥łå®ļ": 5586,
      "ä¿ĿçķĻ": 5587,
      "åħ¶åŃĲ": 5588,
      "åĭĺ": 5589,
      "ç²ī": 5590,
      "åıī": 5591,
      "å¤ºåıĸ": 5592,
      "tegr": 5593,
      "row": 5594,
      "molecular": 5595,
      "lear": 5596,
      "pul": 5597,
      "çŃīçº§": 5598,
      "æĶ¯æı´": 5599,
      "ä¹Į": 5600,
      "è®¤åĲĮ": 5601,
      "å°Ŀ": 5602,
      "éĢīä¸¾": 5603,
      "æ·¡": 5604,
      "æī¹è¯Ħ": 5605,
      "è¡Ķ": 5606,
      "æ¯įäº²": 5607,
      "åħļåĨħ": 5608,
      "æī¹åĪ¤": 5609,
      "éĺĶ": 5610,
      "decreased": 5611,
      "è¾ħåĬ©": 5612,
      "histo": 5613,
      "confir": 5614,
      "ç§Ģæ¬¡": 5615,
      "ç¹ģèį£": 5616,
      "è¸ª": 5617,
      "assi": 5618,
      "åĲįç§°": 5619,
      "å·²æľī": 5620,
      "éĢ¸": 5621,
      "asing": 5622,
      "ä¸¤èĢħ": 5623,
      "èĬ¦": 5624,
      "åĭ¤": 5625,
      "defic": 5626,
      "é¢ĳçİĩ": 5627,
      "é¬": 5628,
      "çİ°çĬ¶": 5629,
      "çĽ´åĪ°": 5630,
      "struct": 5631,
      "èĵĿ": 5632,
      "ä¸İåħ¶": 5633,
      "carcin": 5634,
      "top": 5635,
      "detected": 5636,
      "lip": 5637,
      "éŁ©": 5638,
      "èĩ³ä»Ĭ": 5639,
      "MT": 5640,
      "äººæ°ĳæĶ¿åºľ": 5641,
      "å¤§åĽ½": 5642,
      "èĳ¬": 5643,
      "comes": 5644,
      "extrac": 5645,
      "è¶³åĪ©ä¹īæĺŃ": 5646,
      "èĤł": 5647,
      "æĤ¨": 5648,
      "èº«ä½ĵ": 5649,
      "åĲ´": 5650,
      "éĩĳèŀįæľºæŀĦ": 5651,
      "ually": 5652,
      "calcul": 5653,
      "éĩĬæĶ¾": 5654,
      "atin": 5655,
      "æĽ¾ç»ı": 5656,
      "arter": 5657,
      "åı°æ¹¾": 5658,
      "symptoms": 5659,
      "åİŁåŃĲ": 5660,
      "antibodies": 5661,
      "according": 5662,
      "æ°´åĨĽ": 5663,
      "åģĩè®¾": 5664,
      "patho": 5665,
      "ç¥Ń": 5666,
      "å®ĩéĥ½": 5667,
      "bacter": 5668,
      "åĨ°": 5669,
      "ä¸Ńåħ¨ä¼ļ": 5670,
      "äººæĸĩ": 5671,
      "ç»ĦæĪĲéĥ¨åĪĨ": 5672,
      "è¥¿éĥ¨": 5673,
      "åĬ£": 5674,
      "74": 5675,
      "bone": 5676,
      "æľĢä¸º": 5677,
      "tration": 5678,
      "åħ¬æŃ£": 5679,
      "åİħ": 5680,
      "environ": 5681,
      "å®ĩéĥ½å®«": 5682,
      "åħŃå¹´": 5683,
      "æµĻ": 5684,
      "è¯¹": 5685,
      "æĴŃç£¨": 5686,
      "expl": 5687,
      "ior": 5688,
      "åĬ³åĬ¨åĲĪåĲĮ": 5689,
      "æ°ĳä¼Ĺ": 5690,
      "è¿ĽåĨĽ": 5691,
      "åįģæľĪ": 5692,
      "Research": 5693,
      "life": 5694,
      "åĩĨåĪĻ": 5695,
      "ä¸Ĭå¸Ĥ": 5696,
      "verage": 5697,
      "89": 5698,
      "éĩįå¤į": 5699,
      "äº²çİĭ": 5700,
      "document": 5701,
      "é¢Ĺ": 5702,
      "dose": 5703,
      "éĤĵ": 5704,
      "å¤§å¤§": 5705,
      "åįļå£«": 5706,
      "relationship": 5707,
      "ä¼łéĢĴ": 5708,
      "ä»Ļ": 5709,
      "1000": 5710,
      "å®ĪæĬ¤ä»£": 5711,
      "è¿Ī": 5712,
      "admin": 5713,
      "example": 5714,
      "æıĴ": 5715,
      "å¤©çĦ¶": 5716,
      "èĭ±è¯Ń": 5717,
      "commun": 5718,
      "å¸¸çĶ¨": 5719,
      "see": 5720,
      "cat": 5721,
      "æĻ¯èĻİ": 5722,
      "ize": 5723,
      "resistance": 5724,
      "back": 5725,
      "Our": 5726,
      "ening": 5727,
      "æİ¥æĶ¶": 5728,
      "analyses": 5729,
      "èĲ¥åħ»": 5730,
      "åĲĪçī©": 5731,
      "âĢ²": 5732,
      "2022": 5733,
      "è§Ĩè§Ĵ": 5734,
      "åħ¶å®ĥ": 5735,
      "å²Ĺä½į": 5736,
      "ä¼¼ä¹İ": 5737,
      "åºıåĪĹ": 5738,
      "è¾Ĳ": 5739,
      "åĬ¨åĳĺ": 5740,
      "å¸ĿåĽ½": 5741,
      "antigen": 5742,
      "çŁ³çĶ°ä¸īæĪĲ": 5743,
      "asp": 5744,
      "regulated": 5745,
      "infected": 5746,
      "äººæł¼": 5747,
      "dex": 5748,
      "æĸĩæľ¬": 5749,
      "å°ıç¬ł": 5750,
      "organ": 5751,
      "åľ°äº§": 5752,
      "contrast": 5753,
      "æ§": 5754,
      "éĵģçĤ®": 5755,
      "èİ«": 5756,
      "pha": 5757,
      "åıĶ": 5758,
      "oxid": 5759,
      "å¿§": 5760,
      "æĮĩæķ°": 5761,
      "derived": 5762,
      "strateg": 5763,
      "éĩįè¦ģæĢ§": 5764,
      "æ±¤": 5765,
      "çĸĨ": 5766,
      "å±ķçİ°": 5767,
      "è´¢å¯Į": 5768,
      "æıĲäº¤": 5769,
      "lympho": 5770,
      "å¾ģæĶ¶": 5771,
      "weight": 5772,
      "éĵľ": 5773,
      "ä¸ĭä»¤": 5774,
      "æĪĺåĬŁ": 5775,
      "åĵ¥": 5776,
      "tro": 5777,
      "åħ¬åħ±æľįåĬ¡": 5778,
      "æľīæĿĥ": 5779,
      "äººæ°ĳå¸ģ": 5780,
      "æīĩ": 5781,
      "å¯¹æ¯Ķ": 5782,
      "ç§Ģèµĸ": 5783,
      "è´Ŀ": 5784,
      "glucose": 5785,
      "åħ¨å±Ģ": 5786,
      "lines": 5787,
      "å°ıç¬łåİŁ": 5788,
      "è¯ł": 5789,
      "åĲİæŀľ": 5790,
      "03": 5791,
      "åĨľäº§åĵģ": 5792,
      "æį®è¯´": 5793,
      "NK": 5794,
      "key": 5795,
      "matic": 5796,
      "éĩĩè´Ń": 5797,
      "old": 5798,
      "æĳĩ": 5799,
      "vivo": 5800,
      "åģļæ³ķ": 5801,
      "æ·Ģ": 5802,
      "æ»ĳ": 5803,
      "stage": 5804,
      "metast": 5805,
      "Although": 5806,
      "æŃ¦åĻ¨": 5807,
      "åķĨåĬ¡": 5808,
      "controls": 5809,
      "æĲŀ": 5810,
      "å°ĳå¹´": 5811,
      "å±Ģéĥ¨": 5812,
      "ç®Ģç§°": 5813,
      "å±ı": 5814,
      "èµĭäºĪ": 5815,
      "eld": 5816,
      "éĨį": 5817,
      "èŀįåħ¥": 5818,
      "æľªæĪĲ": 5819,
      "LR": 5820,
      "æ¶ĪçģŃ": 5821,
      "âĨ": 5822,
      "ables": 5823,
      "å¿ĺ": 5824,
      "åº¶": 5825,
      "æĬķèµĦèĢħ": 5826,
      "åĩºåı°": 5827,
      "via": 5828,
      "association": 5829,
      "åµ": 5830,
      "mutations": 5831,
      "æ°ĳæ³ķåħ¸": 5832,
      "åĲĮæŃ¥": 5833,
      "è¢«è¿«": 5834,
      "mid": 5835,
      "ä»£çłģ": 5836,
      "åĿĩè¡¡": 5837,
      "æĪĴ": 5838,
      "å©ļå§»": 5839,
      "bers": 5840,
      "éĨĲ": 5841,
      "éĨįéĨĲ": 5842,
      "ç¼Ķ": 5843,
      "ç®¡è¾ĸ": 5844,
      "è®¤åı¯": 5845,
      "æīĢæľīæĿĥ": 5846,
      "ä¸ĢçĻ¾": 5847,
      "bility": 5848,
      "æŃ¦è£ħ": 5849,
      "difference": 5850,
      "estab": 5851,
      "äººä¸º": 5852,
      "é©¶": 5853,
      "sk": 5854,
      "åĨ³è®®": 5855,
      "ç»ıåħ¸": 5856,
      "æĢİä¹Ī": 5857,
      "ä¸ĩäºº": 5858,
      "ä¸¾æİª": 5859,
      "andom": 5860,
      "äººè´¨": 5861,
      "fail": 5862,
      "pepti": 5863,
      "è¹": 5864,
      "åħ¨çĲĥåĮĸ": 5865,
      "èµģ": 5866,
      "åĢºåĬ¡äºº": 5867,
      "ä¸»å¸Ń": 5868,
      "çĸı": 5869,
      "åĬłèĹ¤": 5870,
      "ç¨³å®ļæĢ§": 5871,
      "beta": 5872,
      "ä¹ĭéĺµ": 5873,
      "strong": 5874,
      "off": 5875,
      "ç¨¿": 5876,
      "åĪ°è¾¾": 5877,
      "æĬ¢": 5878,
      "åĲİèĢħ": 5879,
      "More": 5880,
      "åĽ½å¤ĸ": 5881,
      "ç§Łèµģ": 5882,
      "ick": 5883,
      "1600": 5884,
      "DM": 5885,
      "æĺ¾çĦ¶": 5886,
      "æį®çĤ¹": 5887,
      "96": 5888,
      "éļĨæĻ¯": 5889,
      "åħ¶åĲİ": 5890,
      "æľīåºı": 5891,
      "ç©·": 5892,
      "åĢŁéī´": 5893,
      "éĨĴ": 5894,
      "pain": 5895,
      "ength": 5896,
      "åĲĪå¹¶": 5897,
      "é¬¼": 5898,
      "æ°¸ä¹ħ": 5899,
      "å»¶ç»Ń": 5900,
      "åľ¨åĨħ": 5901,
      "è´Łæĭħ": 5902,
      "åĨ²åĩ»": 5903,
      "eline": 5904,
      "membrane": 5905,
      "Se": 5906,
      "æĪĲåĪĨ": 5907,
      "æ¶¨": 5908,
      "å¸¦é¢Ĩ": 5909,
      "cause": 5910,
      "éĤ¸": 5911,
      "atten": 5912,
      "è®¤è¯ģ": 5913,
      "éĢļéģĵ": 5914,
      "åĴ¨": 5915,
      "åįĹæľĿ": 5916,
      "åıĺå¾Ĺ": 5917,
      "æħİ": 5918,
      "æĤ¬": 5919,
      "åģľæŃ¢": 5920,
      "èĩ³äºİ": 5921,
      "08": 5922,
      "æľįåĬ¡åĻ¨": 5923,
      "pone": 5924,
      "MRI": 5925,
      "diabetes": 5926,
      "åįķä¸Ģ": 5927,
      "è½½ä½ĵ": 5928,
      "ice": 5929,
      "public": 5930,
      "æł·æľ¬": 5931,
      "mito": 5932,
      "åŃĲåŃĻ": 5933,
      "åºĶæĢ¥": 5934,
      "æ·»": 5935,
      "tw": 5936,
      "ML": 5937,
      "æ´ª": 5938,
      "pheno": 5939,
      "defined": 5940,
      "æĴ¤éĶĢ": 5941,
      "amo": 5942,
      "æĶ»åĿļ": 5943,
      "éĺ¶å±Ĥ": 5944,
      "bel": 5945,
      "ä¸»åĬĽ": 5946,
      "atively": 5947,
      "ä¿ĿåŃĺ": 5948,
      "æĲº": 5949,
      "æ°ĳçĶŁ": 5950,
      "åĲ¦å®ļ": 5951,
      "Sci": 5952,
      "åĲĹ": 5953,
      "çºªå¾ĭ": 5954,
      "æ³·": 5955,
      "æľĢæĹ©": 5956,
      "éĢļç§°": 5957,
      "status": 5958,
      "modi": 5959,
      "åĩºéĺµ": 5960,
      "RS": 5961,
      "developed": 5962,
      "è§Ī": 5963,
      "è°ĥè§£": 5964,
      "various": 5965,
      "èĤ¯å®ļ": 5966,
      "åĳ¨åĽ´": 5967,
      "atures": 5968,
      "çĶ°åŁİ": 5969,
      "æĽ°": 5970,
      "é¼ł": 5971,
      "æī¿è¯º": 5972,
      "idence": 5973,
      "infec": 5974,
      "cm": 5975,
      "åįĪ": 5976,
      "çĽĹ": 5977,
      "pressure": 5978,
      "rs": 5979,
      "integr": 5980,
      "æīĵåĩ»": 5981,
      "ä¸īéĥİ": 5982,
      "é«ĺäºİ": 5983,
      "Data": 5984,
      "éĺ¿æ³¢": 5985,
      "æµĵåº¦": 5986,
      "ç«ĭè¶³": 5987,
      "ators": 5988,
      "åı¤æ²³": 5989,
      "åħļåĴĮåĽ½å®¶": 5990,
      "æ¦Ĥæĭ¬": 5991,
      "proced": 5992,
      "rial": 5993,
      "therapeu": 5994,
      "nat": 5995,
      "å®¶äºº": 5996,
      "å¤§èĩ£": 5997,
      "ä¸ĢåĽ½": 5998,
      "é²ľæĺİ": 5999,
      "EP": 6000,
      "åºĦåĽŃ": 6001,
      "åħ±è¯Ĩ": 6002,
      "ä¸Ĭä¸ĭ": 6003,
      "çº¿æĢ§": 6004,
      "ä¸įèī¯": 6005,
      "å¾Īå¿«": 6006,
      "ä¸ĭåĪĹ": 6007,
      "é«ĺéĢŁ": 6008,
      "proble": 6009,
      "tissues": 6010,
      "fibro": 6011,
      "ä¸Ģæ®µ": 6012,
      "èĭıèģĶ": 6013,
      "oles": 6014,
      "asis": 6015,
      "include": 6016,
      "æĪ´": 6017,
      "2008": 6018,
      "å¤ļæł·æĢ§": 6019,
      "arch": 6020,
      "invas": 6021,
      "æŃ¦å®¶": 6022,
      "help": 6023,
      "è¾©è¯ģ": 6024,
      "viral": 6025,
      "ä¸²": 6026,
      "uration": 6027,
      "åĽĽåĽ½": 6028,
      "åħĦéķ¿": 6029,
      "proliferation": 6030,
      "åŀĤ": 6031,
      "éĺ²èĮĥ": 6032,
      "err": 6033,
      "utr": 6034,
      "sistent": 6035,
      "ä¼ıè§ģ": 6036,
      "æŃ¤äºĭ": 6037,
      "itor": 6038,
      "è¾¹çķĮ": 6039,
      "è¿Ľåı£": 6040,
      "éĺ²æ²»": 6041,
      "è¯ŀçĶŁ": 6042,
      "é¡ºåĪ©": 6043,
      "è¶ħè¶Ĭ": 6044,
      "å½°": 6045,
      "ä¾µå®³": 6046,
      "ä¹īå¼ĺ": 6047,
      "ä¸įå¾Ĺä¸į": 6048,
      "times": 6049,
      "family": 6050,
      "WT": 6051,
      "é¢ģå¸ĥ": 6052,
      "åı¯èĥ½æĢ§": 6053,
      "æķĮåĨĽ": 6054,
      "è®³": 6055,
      "è´§çī©": 6056,
      "æ¸ħæĻ°": 6057,
      "åıł": 6058,
      "å¤ªçĶ°": 6059,
      "æİ¨è¡Į": 6060,
      "--------------------": 6061,
      "ä»ħä»ħ": 6062,
      "exposure": 6063,
      "å¤§åŃ¦çĶŁ": 6064,
      "èĥĮåĲİ": 6065,
      "phase": 6066,
      "çŃĴ": 6067,
      "åĽ¢ä½ĵ": 6068,
      "è¯Ŀè¯Ń": 6069,
      "oxy": 6070,
      "percent": 6071,
      "indicated": 6072,
      "cale": 6073,
      "åī¥": 6074,
      "ellular": 6075,
      "äºĴçĽ¸": 6076,
      "tically": 6077,
      "æ°¨": 6078,
      "ç¿¼": 6079,
      "injury": 6080,
      "bene": 6081,
      "çİ¯å¢ĥä¿ĿæĬ¤": 6082,
      "æ¡£æ¡Ī": 6083,
      "ç¾İå¥½": 6084,
      "é£İæł¼": 6085,
      "è°ĪåĪ¤": 6086,
      "know": 6087,
      "rap": 6088,
      "æĦıè¯Ĩå½¢æĢģ": 6089,
      "place": 6090,
      "æĦŁåıĹ": 6091,
      "çĽ¸åıį": 6092,
      "Supplementary": 6093,
      "åįłæį®": 6094,
      "ä¾¿æĺ¯": 6095,
      "åıĸä»£": 6096,
      "medic": 6097,
      "äººæķ°": 6098,
      "çº¤ç»´": 6099,
      "quality": 6100,
      "çĶŁäºİ": 6101,
      "cyte": 6102,
      "AA": 6103,
      "ä¸īç§į": 6104,
      "2011": 6105,
      "è¾Ł": 6106,
      "è®¤çľŁ": 6107,
      "å¸¦åĬ¨": 6108,
      "å¯Ĩåº¦": 6109,
      "ç¤¾ä¼ļç§ĳåŃ¦": 6110,
      "æĹģ": 6111,
      "acute": 6112,
      "So": 6113,
      "ä¹ĭæīĢä»¥": 6114,
      "æĢ»éĩı": 6115,
      "Pr": 6116,
      "chond": 6117,
      "score": 6118,
      "muscle": 6119,
      "æ³¥": 6120,
      "94": 6121,
      "é¢ĩ": 6122,
      "ople": 6123,
      "æłĩåĩĨåĮĸ": 6124,
      "æīĢç¤º": 6125,
      "æĶ¾åľ¨": 6126,
      "*-": 6127,
      "éĹ²": 6128,
      "ances": 6129,
      "*~": 6130,
      "åĢºåĪ¸": 6131,
      "Dis": 6132,
      "åłµ": 6133,
      "orders": 6134,
      "æĦıåĽ¾": 6135,
      "å°±æĺ¯è¯´": 6136,
      "åĴ¨è¯¢": 6137,
      "æŃ¤æ¬¡": 6138,
      "åıĳçĶµ": 6139,
      "èĬ¯": 6140,
      "network": 6141,
      "Î³": 6142,
      "éļıæľº": 6143,
      "least": 6144,
      "ä½Ĳä¹ħ": 6145,
      "çī©æĿĥ": 6146,
      "ç¦ıå²Ľ": 6147,
      "mia": 6148,
      "é«ĺçŃīæķĻèĤ²": 6149,
      "propo": 6150,
      "scre": 6151,
      "æĲŃ": 6152,
      "plasma": 6153,
      "tially": 6154,
      "ably": 6155,
      "phy": 6156,
      "ratio": 6157,
      "å¯Ĵ": 6158,
      "æĥħå¢ĥ": 6159,
      "general": 6160,
      "å®Ļ": 6161,
      "clusion": 6162,
      "regard": 6163,
      "aw": 6164,
      "techniqu": 6165,
      "ä¸įåĬ¨": 6166,
      "åħ¬çĽĬ": 6167,
      "æīĢè¿°": 6168,
      "è´µæĹı": 6169,
      "æľ¬èĥ½å¯ºä¹ĭåıĺ": 6170,
      "conf": 6171,
      "åŀ£": 6172,
      "åĪĨå·¥": 6173,
      "æįŁä¼¤": 6174,
      "area": 6175,
      "çĪ±åĽ½": 6176,
      "severe": 6177,
      "valid": 6178,
      "Ab": 6179,
      "âĢ¢": 6180,
      "ä»£è°¢": 6181,
      "tory": 6182,
      "åīįæľŁ": 6183,
      "çģµæ´»": 6184,
      "æĭĨ": 6185,
      "04": 6186,
      "outcomes": 6187,
      "random": 6188,
      "éº¦": 6189,
      "ä¾¯": 6190,
      "å§Ķä¼ļ": 6191,
      "alpha": 6192,
      "aneous": 6193,
      "hor": 6194,
      "å±¡": 6195,
      "ule": 6196,
      "æĭį": 6197,
      "èĢģå¸Ī": 6198,
      "åľ°åŁŁ": 6199,
      "éĤ£æł·": 6200,
      "å¨¶": 6201,
      "çº³ç¨İ": 6202,
      "æĤ²": 6203,
      "86": 6204,
      "æī¶è´«": 6205,
      "ä¸Ńæľī": 6206,
      "At": 6207,
      "itive": 6208,
      "ä¸Ģåľº": 6209,
      "ç¬¬äºĮæ¬¡": 6210,
      "Ar": 6211,
      "ines": 6212,
      "ç»ĵåŁİ": 6213,
      "è·ĳ": 6214,
      "aged": 6215,
      "æ¼«": 6216,
      "æķıæĦŁ": 6217,
      "èµ·åĪ°": 6218,
      "chemo": 6219,
      "regions": 6220,
      "æĬĹæĹ¥": 6221,
      "æĬļ": 6222,
      "classi": 6223,
      "è¾Ĳå°Ħ": 6224,
      "åĿ¦": 6225,
      "æ±ĩçİĩ": 6226,
      "æĪ¿åľ°äº§": 6227,
      "æ´¾åĩº": 6228,
      "lant": 6229,
      "report": 6230,
      "çł´äº§": 6231,
      "æĹłè®ºæĺ¯": 6232,
      "åĽ¾ä¹¦": 6233,
      "æ¸ĹéĢı": 6234,
      "ç®±": 6235,
      "sci": 6236,
      "åĩĿèģļ": 6237,
      "ä¸¹æ³¢": 6238,
      "frequency": 6239,
      "åľ°åĿĢ": 6240,
      "CM": 6241,
      "oph": 6242,
      "agement": 6243,
      "å¯¸": 6244,
      "sider": 6245,
      "required": 6246,
      "ä»Ĭå·Ŀä¹īåħĥ": 6247,
      "çİ°åľº": 6248,
      "éĵ¸": 6249,
      "åıĳèĤ²": 6250,
      "å¤ĸåĽ½": 6251,
      "FP": 6252,
      "ä½Ĳä½Ĳ": 6253,
      "mort": 6254,
      "toxic": 6255,
      "effici": 6256,
      "çľĭæĿ¥": 6257,
      "çĽ¸ç»§": 6258,
      "ä¸ĥå¹´": 6259,
      "æĹłäºº": 6260,
      "ç©ºæ°Ķ": 6261,
      "ä¹ĭå½¹": 6262,
      "çº·çº·": 6263,
      "cost": 6264,
      "æµģè¡Į": 6265,
      "æ¸¸æĪı": 6266,
      "èħĶ": 6267,
      "92": 6268,
      "ä½ĽæķĻ": 6269,
      "æĥħèĬĤ": 6270,
      "åħ±åĲĮå¯Įè£ķ": 6271,
      "mechanism": 6272,
      "éĺĲè¿°": 6273,
      "å·¥ä¸ļåĮĸ": 6274,
      "EN": 6275,
      "å®ĩå®Ļ": 6276,
      "åł¡": 6277,
      "clear": 6278,
      "even": 6279,
      "social": 6280,
      "å£«åħµ": 6281,
      "ä¸İæŃ¤": 6282,
      "å¤¹": 6283,
      "ä¸ĢåĲĳä¸ĢæıĨ": 6284,
      "free": 6285,
      "psych": 6286,
      "mains": 6287,
      "èªĵ": 6288,
      "è£ħç½®": 6289,
      "æĤŁ": 6290,
      "åĩºä»ķ": 6291,
      "ç¬¼": 6292,
      "åħ¬åħĥ": 6293,
      "é¢Ĩæľī": 6294,
      "dam": 6295,
      "åıĳæĺİ": 6296,
      "åĨįåº¦": 6297,
      "æľºéģĩ": 6298,
      "æĮĸæİĺ": 6299,
      "ä¸ĵé¡¹": 6300,
      "87": 6301,
      "å°ıæĹ¶": 6302,
      "é¦ĸçº§": 6303,
      "å¥³æĢ§": 6304,
      "å®ŀæĹ¶": 6305,
      "plication": 6306,
      "Bi": 6307,
      "æŃ£å®¤": 6308,
      "effective": 6309,
      "often": 6310,
      "çİ¯ä¿Ŀ": 6311,
      "åĪĨåī²": 6312,
      "appear": 6313,
      "åĲ«ä¹ī": 6314,
      "èģĶçĽŁ": 6315,
      "however": 6316,
      "çĴ": 6317,
      "ä¸įæĺİ": 6318,
      "2009": 6319,
      "æĴ°": 6320,
      "æı´åĬ©": 6321,
      "è£ģåĪ¤": 6322,
      "ç¬¬ä¸ĥ": 6323,
      "èĤĥ": 6324,
      "æĺİæ²»": 6325,
      "ä¿¡èĻİ": 6326,
      "ores": 6327,
      "æ±łçĶ°": 6328,
      "æ³ķå®ĺ": 6329,
      "æľ¬ä¹¦": 6330,
      "èģĶåĲĪåĽ½": 6331,
      "Pre": 6332,
      "çķ´": 6333,
      "ç§ĳåŃ¦å®¶": 6334,
      "æĻ´åħĥ": 6335,
      "prob": 6336,
      "æıĲåĪ°": 6337,
      "é¦Ī": 6338,
      "across": 6339,
      "éĩĮè§ģ": 6340,
      "Thus": 6341,
      "ãģ«": 6342,
      "é¢ĨåĽ½": 6343,
      "ä½İäºİ": 6344,
      "æ³ķåŃ¦": 6345,
      "GC": 6346,
      "å¹²æī°": 6347,
      "ä¼°è®¡": 6348,
      "them": 6349,
      "äº§çī©": 6350,
      "è¿ĻæĹ¶": 6351,
      "lit": 6352,
      "åºĶä»ģ": 6353,
      "ject": 6354,
      "å®£å¸ĥ": 6355,
      "çĶ¨æĿ¥": 6356,
      "ç½ĳç»ľå®īåħ¨": 6357,
      "incub": 6358,
      "æĸ¥": 6359,
      "pathways": 6360,
      "æľ¬å¤ļ": 6361,
      "surface": 6362,
      "åĩºäºĳ": 6363,
      "æĻĵ": 6364,
      "length": 6365,
      "ä¾µçĬ¯": 6366,
      "æ°Ķä½ĵ": 6367,
      "åĿ¡": 6368,
      "inflammation": 6369,
      "äººç¾¤": 6370,
      "éĤĢ": 6371,
      "æĮĩåįĹ": 6372,
      "èĥ¸": 6373,
      "èĦ±ç¦»": 6374,
      "å¹¸ç¦ı": 6375,
      "åĬŀåħ¬": 6376,
      "pen": 6377,
      "æŃ§": 6378,
      "93": 6379,
      "æĿ°": 6380,
      "åıĳè¾¾åĽ½å®¶": 6381,
      "åĲİä¸ĸ": 6382,
      "kg": 6383,
      "lack": 6384,
      "EL": 6385,
      "methyl": 6386,
      "ä¸»ä»»": 6387,
      "adh": 6388,
      "å¦¥": 6389,
      "åıĺåĬ¨": 6390,
      "åĵģè´¨": 6391,
      "åıĽä¹±": 6392,
      "åĪĨæķ£": 6393,
      "æ¯Ķéĩį": 6394,
      "åĪĽéĢłæĢ§": 6395,
      "ä¼łè¯´": 6396,
      "ä»¥ä¸º": 6397,
      "sensitivity": 6398,
      "GDP": 6399,
      "healthy": 6400,
      "æŁ´çĶ°èĥľå®¶": 6401,
      "dys": 6402,
      "ina": 6403,
      "æĹłçĸĳ": 6404,
      "cept": 6405,
      "fn": 6406,
      "åĨįçĶŁ": 6407,
      "vice": 6408,
      "âĳ¢": 6409,
      "è¾Ľ": 6410,
      "ian": 6411,
      "elet": 6412,
      "ä¸°åĲİ": 6413,
      "éĹ´æİ¥": 6414,
      "æĮĩä»¤": 6415,
      "å¤ªå¹³": 6416,
      "çłĶç©¶æīĢ": 6417,
      "é¡ºåºı": 6418,
      "æĪĲæķĪ": 6419,
      "æį·": 6420,
      "æıĲèµ·": 6421,
      "supplementary": 6422,
      "èµ·è¯ī": 6423,
      "ä¸īå¤§": 6424,
      "transf": 6425,
      "æ··ä¹±": 6426,
      "sal": 6427,
      "è§Ĥæµĭ": 6428,
      "å¦ĩå¥³": 6429,
      "SCs": 6430,
      "åĽ½éĺ²": 6431,
      "Ser": 6432,
      "ste": 6433,
      "ison": 6434,
      "tak": 6435,
      "æĳĺ": 6436,
      "çĽĳæİ§": 6437,
      "è¾Ĩ": 6438,
      "ä¹Ŀå¹´": 6439,
      "çł¦": 6440,
      "åłĨ": 6441,
      "åıĤæĪĺ": 6442,
      "å¦Ĥä»Ĭ": 6443,
      "abo": 6444,
      "therapeutic": 6445,
      "ä¾Ŀæīĺ": 6446,
      "ç¬¦åı·": 6447,
      "ht": 6448,
      "è®²è¯Ŀ": 6449,
      "åİĨåı²æĢ§": 6450,
      "åĳ¼åĲ¸": 6451,
      "ç¡¬ä»¶": 6452,
      "fat": 6453,
      "è¿Ĳä½ľ": 6454,
      "self": 6455,
      "ç¼ĸè¾ĳ": 6456,
      "ç§įç±»": 6457,
      "After": 6458,
      "éĩįå»º": 6459,
      "æľºåĻ¨äºº": 6460,
      "å±ĢéĻĲ": 6461,
      "ç¿»è¯ĳ": 6462,
      "åĶ¯çī©": 6463,
      "äº¤åıī": 6464,
      "bu": 6465,
      "systems": 6466,
      "æ©": 6467,
      "åĵģçīĮ": 6468,
      "09": 6469,
      "æİ¥åı£": 6470,
      "æĥ¨": 6471,
      "èµµ": 6472,
      "å°ī": 6473,
      "èķ´": 6474,
      "åĩ»éĢĢ": 6475,
      "åį°åº¦": 6476,
      "graphy": 6477,
      "è¯Ńæĸĩ": 6478,
      "èĥİ": 6479,
      "elect": 6480,
      "äººçĶŁ": 6481,
      "åľºæīĢ": 6482,
      "éģµå®Ī": 6483,
      "æľįåĬ¡ä¸ļ": 6484,
      "ç¨Ļ": 6485,
      "BD": 6486,
      "æİ¨èįĲ": 6487,
      "ä¹ĭä¸Ĭ": 6488,
      "æīĭæľ¯": 6489,
      "concentration": 6490,
      "ç»´åº¦": 6491,
      "84": 6492,
      "éºŁ": 6493,
      "æľīæĹ¶": 6494,
      "exten": 6495,
      "cript": 6496,
      "cence": 6497,
      "å¹´è½»": 6498,
      "apoptosis": 6499,
      "iat": 6500,
      "æľªæľī": 6501,
      "ä¿®è®¢": 6502,
      "å·¡": 6503,
      "ä¿¡å¿µ": 6504,
      "å®¡ç¾İ": 6505,
      "rates": 6506,
      "ists": 6507,
      "æľĹ": 6508,
      "åĩºå®¶": 6509,
      "èĮĥçķ´": 6510,
      "æĬ«": 6511,
      "åħ³çĻ½": 6512,
      "åĲ¨": 6513,
      "ä¸§å¤±": 6514,
      "å°Ŀè¯ķ": 6515,
      "SM": 6516,
      "containing": 6517,
      "æŃ¦çĶ°èĥľèµĸ": 6518,
      "mortality": 6519,
      "inhibition": 6520,
      "ä»Ĭå¹´": 6521,
      "HA": 6522,
      "lied": 6523,
      "è¡į": 6524,
      "continu": 6525,
      "uses": 6526,
      "çķħ": 6527,
      "har": 6528,
      "äºĶéĥİ": 6529,
      "äºĮäºº": 6530,
      "èĪĨ": 6531,
      "Rec": 6532,
      "åľŁä½Ĳ": 6533,
      "Com": 6534,
      "å®³äºº": 6535,
      "å½ĵå¹´": 6536,
      "è®°å¿Ĩ": 6537,
      "ç²Ĺ": 6538,
      "suff": 6539,
      "provided": 6540,
      "dat": 6541,
      "logical": 6542,
      "éĩĩéĽĨ": 6543,
      "sequence": 6544,
      "ä¹īæĺŃ": 6545,
      "çŃĳåīį": 6546,
      "å°ĸ": 6547,
      "igr": 6548,
      "SO": 6549,
      "åĢŁåĬ©": 6550,
      "æ»¤": 6551,
      "IM": 6552,
      "secre": 6553,
      "leu": 6554,
      "å¥´": 6555,
      "å¤ĩä¸Ń": 6556,
      "lar": 6557,
      "gli": 6558,
      "å¤įåĲĪ": 6559,
      "åį³ä¾¿": 6560,
      "ä¹ĭä½į": 6561,
      "differentiation": 6562,
      "è¢Ńåĩ»": 6563,
      "kine": 6564,
      "mb": 6565,
      "èľĤ": 6566,
      "æĻºèĥ½åĮĸ": 6567,
      "å¤§å¤ļ": 6568,
      "tain": 6569,
      "site": 6570,
      "é«ĵ": 6571,
      "åĨħåŃĺ": 6572,
      "renal": 6573,
      "èĩªæĿĢ": 6574,
      "people": 6575,
      "ledge": 6576,
      "Le": 6577,
      "å«Į": 6578,
      "éĵģè·¯": 6579,
      "é¢ľ": 6580,
      "å°§": 6581,
      "æł¹æį®åľ°": 6582,
      "ä¸įè¦ģ": 6583,
      "æĶ¶åĪ°": 6584,
      "å¯»æī¾": 6585,
      "æ¼Ķåıĺ": 6586,
      "correlation": 6587,
      "onic": 6588,
      "çŁ¥è¡Į": 6589,
      "TNF": 6590,
      "ä¸ŃåĽ½å¼ı": 6591,
      "ume": 6592,
      "83": 6593,
      "ä¼Ĺå¤ļ": 6594,
      "æĸ¹ä½į": 6595,
      "CL": 6596,
      "åıįå¤į": 6597,
      "ç»³": 6598,
      "åħ¨è¿ĩç¨ĭ": 6599,
      "çº½": 6600,
      "èĵĦ": 6601,
      "Mo": 6602,
      "ä¸įå¤Ł": 6603,
      "æĦŁçŁ¥": 6604,
      "æĮĩç¤º": 6605,
      "çľĭåĩº": 6606,
      "revealed": 6607,
      "gery": 6608,
      "æĸĩèīº": 6609,
      "éĥŃ": 6610,
      "çŁŃæľŁ": 6611,
      "mical": 6612,
      "åħ¬éĩĮ": 6613,
      "å¸ĤåľºåĮĸ": 6614,
      "å»ºéĢł": 6615,
      "æ£®æŀĹ": 6616,
      "åħ¬å¸ĥ": 6617,
      "den": 6618,
      "fem": 6619,
      "æľªæĪĲå¹´äºº": 6620,
      "ä¹īéļĨ": 6621,
      "åľŁå²Ĳ": 6622,
      "enter": 6623,
      "åįłé¢Ĩ": 6624,
      "æ¬º": 6625,
      "domin": 6626,
      "images": 6627,
      "USA": 6628,
      "å¤«å¦»": 6629,
      "relative": 6630,
      "ä¸İæŃ¤åĲĮæĹ¶": 6631,
      "å°ıå¹³": 6632,
      "...": 6633,
      "å¼ĢåĪĽ": 6634,
      "additional": 6635,
      "weeks": 6636,
      "æķ´çĲĨ": 6637,
      "characteristics": 6638,
      "ç§ĳåŃ¦æĬĢæľ¯": 6639,
      "è¿·": 6640,
      "TT": 6641,
      "åķĨäºº": 6642,
      "drome": 6643,
      "utes": 6644,
      "mag": 6645,
      "ä¾Ŀæ³ķæ²»": 6646,
      "progression": 6647,
      "ä¾Ŀæ³ķæ²»åĽ½": 6648,
      "é¢Ī": 6649,
      "ä¸īè§Ĵ": 6650,
      "å±Ī": 6651,
      "åŁĭ": 6652,
      "éĻ·èĲ½": 6653,
      "è®¾å®ļ": 6654,
      "å¾®çĶŁçī©": 6655,
      "fit": 6656,
      "assessed": 6657,
      "82": 6658,
      "æĭħå½ĵ": 6659,
      "éŃı": 6660,
      "éĽĩ": 6661,
      "éķĩåİĭ": 6662,
      "çº¢èī²": 6663,
      "æĿĢå®³": 6664,
      "äºĮæľĪ": 6665,
      "çĶ¨åľ°": 6666,
      "ç¡®å®ŀ": 6667,
      "å¾Ĺåĩº": 6668,
      "activated": 6669,
      "æŃ»åĲİ": 6670,
      "ä¸¾åĬŀ": 6671,
      "pt": 6672,
      "xed": 6673,
      "èĩªåĬ¨åĮĸ": 6674,
      "Can": 6675,
      "presented": 6676,
      "åĦĴå®¶": 6677,
      "æĬµè¾¾": 6678,
      "åħ«å¹´": 6679,
      "åİĨç¨ĭ": 6680,
      "èģĺ": 6681,
      "hold": 6682,
      "ling": 6683,
      "èħĲè´¥": 6684,
      "æ¡Ĥ": 6685,
      "HB": 6686,
      "åħļçļĦé¢Ĩå¯¼": 6687,
      "suc": 6688,
      "criter": 6689,
      "åĲ«éĩı": 6690,
      "proto": 6691,
      "distribution": 6692,
      "æľĢé«ĺäººæ°ĳæ³ķéĻ¢": 6693,
      "ä¸īåįģ": 6694,
      "smo": 6695,
      "ç¤¾ä¼ļä¿Ŀéļľ": 6696,
      "æµĻæ±Ł": 6697,
      "è¾¹ç¼ĺ": 6698,
      "äººæ°ĳä»£è¡¨å¤§ä¼ļ": 6699,
      "åįķçĭ¬": 6700,
      "èĬĤèĥ½": 6701,
      "åĴĮè§£": 6702,
      "åıįèĢĮ": 6703,
      "åĪĨåĮĸ": 6704,
      "æ¦Ĥè¿°": 6705,
      "ç´«": 6706,
      "æĻ®åıĬ": 6707,
      "position": 6708,
      "æ¬¡éĥİ": 6709,
      "æº¯": 6710,
      "æĽ´å¤§": 6711,
      "81": 6712,
      "generation": 6713,
      "èĲ¥éĢł": 6714,
      "receptors": 6715,
      "media": 6716,
      "given": 6717,
      "æ¿ĢçĥĪ": 6718,
      "aro": 6719,
      "æĹ¥èµ·": 6720,
      "remain": 6721,
      "äº¤å¾Ģ": 6722,
      "Therefore": 6723,
      "impact": 6724,
      "ç§¯æŀģæĢ§": 6725,
      "æľĢæĸ°": 6726,
      "çĬ¹": 6727,
      "å¤§æ°Ķ": 6728,
      "US": 6729,
      "fil": 6730,
      "whereas": 6731,
      "ef": 6732,
      "å°ıåŃ¦": 6733,
      "æĥħç»ª": 6734,
      "het": 6735,
      "FA": 6736,
      "å®ŀçĶ¨": 6737,
      "è¶³å¤Ł": 6738,
      "çĽĪ": 6739,
      "éĶĲ": 6740,
      "ä¸»æµģ": 6741,
      "coll": 6742,
      "cardio": 6743,
      "è¡Ķæİ¥": 6744,
      "stimulation": 6745,
      "å¤§ä¼Ĺ": 6746,
      "æİ¨æµĭ": 6747,
      "itation": 6748,
      "Cl": 6749,
      "åŁİæ±ł": 6750,
      "Furthermore": 6751,
      "æĽ²çº¿": 6752,
      "é«ĺåĽ½": 6753,
      "grad": 6754,
      "ä¸´æĹ¶": 6755,
      "ç¢ĳ": 6756,
      "æķ¦": 6757,
      "å¾ĭå¸Ī": 6758,
      "çģ°": 6759,
      "è§Ĩè§ī": 6760,
      "å¾ĹçŁ¥": 6761,
      "æ¡¶": 6762,
      "accur": 6763,
      "condition": 6764,
      "äº§éĩı": 6765,
      "greater": 6766,
      "æķħæĦı": 6767,
      "æīĵçł´": 6768,
      "*.": 6769,
      "æ³¡": 6770,
      "é«ĺæ°´å¹³": 6771,
      "èĽĭçĻ½è´¨": 6772,
      "çĻ¾åĪĨ": 6773,
      "cour": 6774,
      "æĿľ": 6775,
      "later": 6776,
      "ands": 6777,
      "çĶµåİĭ": 6778,
      "æ»ĭ": 6779,
      "äºĮèĢħ": 6780,
      "ale": 6781,
      "çªģåıĺ": 6782,
      "å°Ĩé¢Ĩ": 6783,
      "pap": 6784,
      "èĳ£äºĭ": 6785,
      "èĴĻåı¤": 6786,
      "éģĩåĪ°": 6787,
      "ç¨Ģ": 6788,
      "ç«ĭä¸ĭ": 6789,
      "éĿ¶": 6790,
      "èĥ½åĲ¦": 6791,
      "examined": 6792,
      "disorders": 6793,
      "Li": 6794,
      "æµģæĶ¾": 6795,
      "æĵħ": 6796,
      "åıĪç§°": 6797,
      "######": 6798,
      "åºĹ": 6799,
      "æķĳæı´": 6800,
      "è§Ĩé¢ĳ": 6801,
      "åĮ¹éħį": 6802,
      "çº³ç±³": 6803,
      "åįıä½ľ": 6804,
      "å»¶ä¼¸": 6805,
      "æĪĺè´¥": 6806,
      "èĳ¡": 6807,
      "åŃĲå¥³": 6808,
      "åıĳå°Ħ": 6809,
      "åĽ½åĨħå¤ĸ": 6810,
      "åĲ¦åĪĻ": 6811,
      "followed": 6812,
      "91": 6813,
      "structure": 6814,
      "å°ıåº·ç¤¾ä¼ļ": 6815,
      "hol": 6816,
      "åİŁæĿ¥": 6817,
      "æĬ¥éģĵ": 6818,
      "ä¼Ĭä¸ľ": 6819,
      "é«ĺä¸Ń": 6820,
      "ä¹¦éĿ¢": 6821,
      "æ¸ħæŃ£": 6822,
      "çĶµæµģ": 6823,
      "åŃ¦ä¼ļ": 6824,
      "çĽ¸æ¨¡": 6825,
      "è¿½åĩ»": 6826,
      "åįģäºĮæľĪ": 6827,
      "åŁĥ": 6828,
      "ç»ĵæŀĦæĢ§": 6829,
      "ä¹ĥèĩ³": 6830,
      "åħĪçĶŁ": 6831,
      "æĦŁåĪ°": 6832,
      "æĹ¨åľ¨": 6833,
      "åı¯è¡Į": 6834,
      "oth": 6835,
      "ç¾İæľ¯": 6836,
      "hydro": 6837,
      "äºĶåįģ": 6838,
      "å¯»æ±Ĥ": 6839,
      "çľŁçĲĨ": 6840,
      "æĽ¼": 6841,
      "HO": 6842,
      "Pati": 6843,
      "åĲĦæĸ¹": 6844,
      "macroph": 6845,
      "prior": 6846,
      "practi": 6847,
      "staining": 6848,
      "æ½ľåĬĽ": 6849,
      "ulations": 6850,
      "æ³ķå¾ĭæ³ķè§Ħ": 6851,
      "æķ°é¢Ŀ": 6852,
      "èĬ³": 6853,
      "æĺİæľĿ": 6854,
      "èģļçĦ¦": 6855,
      "ä½ľçī©": 6856,
      "97": 6857,
      "suppres": 6858,
      "parameters": 6859,
      "urs": 6860,
      "ä¹°åįĸ": 6861,
      "æĪĲç»©": 6862,
      "å®ļæľŁ": 6863,
      "å°ıå±±": 6864,
      "éĢĶä¸Ń": 6865,
      "èĤ¥åĲİ": 6866,
      "orig": 6867,
      "æŃ¤åīį": 6868,
      "çªĹ": 6869,
      "reduction": 6870,
      "äºĶä½į": 6871,
      "load": 6872,
      "lying": 6873,
      "å¤ļå°ĳ": 6874,
      "defici": 6875,
      "çķĮå®ļ": 6876,
      "better": 6877,
      "åĲ¾": 6878,
      "èĬ¦åĲį": 6879,
      "åŁİéķĩåĮĸ": 6880,
      "ä¸ºä¾ĭ": 6881,
      "å¢ŀåĢ¼": 6882,
      "recogn": 6883,
      "æ¡ĳ": 6884,
      "ç°": 6885,
      "äºĮæĿ¡": 6886,
      "ä¸ŃåĽ½å®¶": 6887,
      "æ¬§çĽŁ": 6888,
      "èĤ¡ç¥¨": 6889,
      "ä»ĩ": 6890,
      "estim": 6891,
      "åıĳå±ķä¸ŃåĽ½å®¶": 6892,
      "éĢĥå¾Ģ": 6893,
      "å®ĺåĳĺ": 6894,
      "increasing": 6895,
      "ä¸ĢæĹ¥": 6896,
      "intr": 6897,
      "è½¨éģĵ": 6898,
      "åĩºèµĦ": 6899,
      "åĿĽ": 6900,
      "HP": 6901,
      "å¾Ĳ": 6902,
      "2007": 6903,
      "åİŁæľī": 6904,
      "bro": 6905,
      "æ²»åħļ": 6906,
      "éķ¿ä¹ħ": 6907,
      "éģ¥": 6908,
      "åĬ¨ä½ľ": 6909,
      "ä¸»æĮģ": 6910,
      "affect": 6911,
      "éĢļçĶ¨": 6912,
      "æŃ£æľĪ": 6913,
      "sto": 6914,
      "consider": 6915,
      "ä¾įå¥ī": 6916,
      "èĲ¥éĶĢ": 6917,
      "ä¿ĥä½¿": 6918,
      "ä½ıæĪ¿": 6919,
      "enzy": 6920,
      "lat": 6921,
      "åħļç»Ħç»ĩ": 6922,
      "è°ĭåıį": 6923,
      "detection": 6924,
      "BA": 6925,
      "ä¿®æŃ£": 6926,
      "æĦŁè§ī": 6927,
      "èĤ¡ä»½": 6928,
      "æľ¬éĺµ": 6929,
      "ä¹ĭè·¯": 6930,
      "æºĲäºİ": 6931,
      "å°ıè¯´": 6932,
      "ç¢İ": 6933,
      "ç½Ĺé©¬": 6934,
      "mL": 6935,
      "preval": 6936,
      "éļ¾é¢ĺ": 6937,
      "__": 6938,
      "volume": 6939,
      "indicate": 6940,
      "å¸ľ": 6941,
      "vices": 6942,
      "alter": 6943,
      "åĢŁæ¬¾": 6944,
      "LT": 6945,
      "ç¡®å®ļæĢ§": 6946,
      "ä»ªå¼ı": 6947,
      "åĪĥ": 6948,
      "æľ¬ç§ĳ": 6949,
      "åĶ±": 6950,
      "visual": 6951,
      "120": 6952,
      "cardiac": 6953,
      "æ²¡æĶ¶": 6954,
      "èĨ¨": 6955,
      "ä¹Łå°±æĺ¯è¯´": 6956,
      "åĽ½æľīä¼ģä¸ļ": 6957,
      "ç½¢": 6958,
      "äº¤äºĴ": 6959,
      "ç»ıè´¹": 6960,
      "âī¥": 6961,
      "ãģĹ": 6962,
      "conducted": 6963,
      "æµģåŁŁ": 6964,
      "outcome": 6965,
      "correspon": 6966,
      "è¡Įä¸ºäºº": 6967,
      "å¿½è§Ĩ": 6968,
      "ints": 6969,
      "proper": 6970,
      "åĲįåŃĹ": 6971,
      "åĽ½æ°ĳç»ıæµİ": 6972,
      "äººæĿĥ": 6973,
      "æŀĦéĢł": 6974,
      "æķħéļľ": 6975,
      "ä¿±": 6976,
      "thus": 6977,
      "guid": 6978,
      "æĢĿæĶ¿": 6979,
      "ç½Ĺæĸ¯": 6980,
      "suppor": 6981,
      "åĨĻä½ľ": 6982,
      "å®īåħ¨æĢ§": 6983,
      "æľĢä½³": 6984,
      "above": 6985,
      "çİĩåĨĽ": 6986,
      "æĸ¹ä¾¿": 6987,
      "ç¥ĸçĪ¶": 6988,
      "åĽ½æ°ĳåħļ": 6989,
      "æĶ»çķ¥": 6990,
      "æĥ³è±¡": 6991,
      "éħįå¥Ĺ": 6992,
      "features": 6993,
      "encing": 6994,
      "æ¶Į": 6995,
      "ij": 6996,
      "migr": 6997,
      "eth": 6998,
      "å½ĵä¸Ń": 6999,
      "died": 7000,
      "mono": 7001,
      "ä¸ŃæľŁ": 7002,
      "novel": 7003,
      "ä¼Ĭè´º": 7004,
      "ä¸»æĿĥ": 7005,
      "DR": 7006,
      "surgery": 7007,
      "DA": 7008,
      "çĽ®å½ķ": 7009,
      "highly": 7010,
      "èĲ½åĲİ": 7011,
      "ä¼Ĭè±Ĩ": 7012,
      "ä»¤äºº": 7013,
      "ç¦ıåĪ©": 7014,
      "ç¬¬ä¸ĢèĬĤ": 7015,
      "prevent": 7016,
      "æĿĳæ°ĳ": 7017,
      "combination": 7018,
      "å½¦": 7019,
      "VA": 7020,
      "è§£åĨ³éĹ®é¢ĺ": 7021,
      "âĶ": 7022,
      "åĪĩèħ¹": 7023,
      "assessment": 7024,
      "åıįé¦Ī": 7025,
      "æĶ¿åħĥ": 7026,
      "æ³Ħ": 7027,
      "éģĵéĽª": 7028,
      "æµģéĩı": 7029,
      "cord": 7030,
      "06": 7031,
      "ç¬¬äºĮèĬĤ": 7032,
      "animals": 7033,
      "lig": 7034,
      "cognitive": 7035,
      "èĪªå¤©": 7036,
      "åħ¶çĪ¶": 7037,
      "åĲ§": 7038,
      "intervention": 7039,
      "syndrome": 7040,
      "gree": 7041,
      "cers": 7042,
      "beg": 7043,
      "åĪĨè§£": 7044,
      "åľ¨çº¿": 7045,
      "å¹´åº¦": 7046,
      "éĺ²æİ§": 7047,
      "æŀ¢": 7048,
      "deli": 7049,
      "å¾ħéģĩ": 7050,
      "è§£è¯»": 7051,
      "åıĸåĨ³": 7052,
      "æľ¬æ³ķ": 7053,
      "è®°èĢħ": 7054,
      "ä¸įåıĺ": 7055,
      "interaction": 7056,
      "äºīå¤º": 7057,
      "å¹³éĿ¢": 7058,
      "ä»ĭåħ¥": 7059,
      "ynam": 7060,
      "éĥĳ": 7061,
      "èıĬ": 7062,
      "äº¬æŀģ": 7063,
      "ä¹ĭå¼Ł": 7064,
      "èµ«": 7065,
      "åı¯æĺ¯": 7066,
      "å¤įåĪ¶": 7067,
      "æīĭä¸Ń": 7068,
      "ä¼ĺè´¨": 7069,
      "åıįæĢĿ": 7070,
      "TA": 7071,
      "âĸ": 7072,
      "çĽ¸äºĴä½ľçĶ¨": 7073,
      "éĤĵå°ıå¹³": 7074,
      "è¿ĩåº¦": 7075,
      "å¤§å¤«": 7076,
      "åĬŀåŃ¦": 7077,
      "ran": 7078,
      "Ľèµ·": 7079,
      "å¤§éĻĨ": 7080,
      "æ¶ĪèĢĹ": 7081,
      "comm": 7082,
      "äººåĿĩ": 7083,
      "æıĲåıĸ": 7084,
      "èıľ": 7085,
      "vement": 7086,
      "step": 7087,
      "è¿Ļåľº": 7088,
      "ç¨İåĬ¡": 7089,
      "does": 7090,
      "trials": 7091,
      "III": 7092,
      "IFN": 7093,
      "èĴ²çĶŁ": 7094,
      "lot": 7095,
      "çŁ³å·Ŀ": 7096,
      "åıĸåĨ³äºİ": 7097,
      "è´ŁåĢº": 7098,
      "æİ¢æµĭ": 7099,
      "æ¿Ģæ´»": 7100,
      "concentrations": 7101,
      "çİ°è¡Į": 7102,
      "å®¹éĩı": 7103,
      "æĭ¥ç«ĭ": 7104,
      "issu": 7105,
      "äººä½ĵ": 7106,
      "çĹħäºº": 7107,
      "åĤ¨å¤ĩ": 7108,
      "åįģä¸ĢæľĪ": 7109,
      "07": 7110,
      "2005": 7111,
      "çıį": 7112,
      "ä¸Ģå¤§": 7113,
      "æ¢¯": 7114,
      "ision": 7115,
      "æ³¢åĬ¨": 7116,
      "short": 7117,
      "çĽ´èĩ³": 7118,
      "æ¸Ĭ": 7119,
      "è·³": 7120,
      "index": 7121,
      "æ»¥": 7122,
      "add": 7123,
      "åĭĥ": 7124,
      "åħ«å¹¡": 7125,
      "âħ": 7126,
      "åĨĴ": 7127,
      "ential": 7128,
      "çĬ¬": 7129,
      "çĽĳæĬ¤": 7130,
      "ä¸¹ç¾½": 7131,
      "æŃ£å¦Ĥ": 7132,
      "åĬ¨èĦī": 7133,
      "Au": 7134,
      "çĤŃ": 7135,
      "evaluated": 7136,
      "äººèº«": 7137,
      "clust": 7138,
      "cut": 7139,
      "çıł": 7140,
      "Ap": 7141,
      "åŀĴ": 7142,
      "ä¹īåħ´": 7143,
      "çĶŁæĢģç³»ç»Ł": 7144,
      "åīįæĿ¥": 7145,
      "åĥļ": 7146,
      "ç³Ĭ": 7147,
      "è°¨": 7148,
      "hort": 7149,
      "æŀģä¸º": 7150,
      "ç£·": 7151,
      "è®¡éĩı": 7152,
      "åĨħèĹ¤": 7153,
      "agg": 7154,
      "åĤ¬åĮĸ": 7155,
      "ï¼ı": 7156,
      "2006": 7157,
      "ä¾¦": 7158,
      "å©¿": 7159,
      "rats": 7160,
      "çĶŁçĲĨ": 7161,
      "åĽĽéĥİ": 7162,
      "transcription": 7163,
      "éŃĤ": 7164,
      "mutation": 7165,
      "éķ¿æ±Ł": 7166,
      "æĸ¹ç¨ĭ": 7167,
      "å®½æ°¸": 7168,
      "æ¸ħæ´ģ": 7169,
      "æľĢä½İ": 7170,
      "åĲįä¸º": 7171,
      "åĵģç§į": 7172,
      "diet": 7173,
      "è§£åĨ³æĸ¹æ¡Ī": 7174,
      "ä¸ĭéĩİ": 7175,
      "super": 7176,
      "èį¯åĵģ": 7177,
      "åłº": 7178,
      "tub": 7179,
      "sor": 7180,
      "detect": 7181,
      "éĺľ": 7182,
      "limited": 7183,
      "èĤ²äºº": 7184,
      "åıĳéĢģ": 7185,
      "ä¸ĢåĲį": 7186,
      "èĩ´åĬĽ": 7187,
      "ä¸įä½Ĩ": 7188,
      "æĿ¥åĪ°": 7189,
      "å¹³æ°ı": 7190,
      "æ¯ĽåĪ©è¾īåħĥ": 7191,
      "æļĤæĹ¶": 7192,
      "åĲĪæ³ķæĿĥçĽĬ": 7193,
      "åīįæ²¿": 7194,
      "acqu": 7195,
      "æ°®": 7196,
      "èĬ¯çīĩ": 7197,
      "resid": 7198,
      "ä¸¾åħµ": 7199,
      "åħ¬å®¶": 7200,
      "æµ·å¤ĸ": 7201,
      "è´§å¸ģæĶ¿çŃĸ": 7202,
      "åħ±æľī": 7203,
      "EG": 7204,
      "image": 7205,
      "æ°Ľ": 7206,
      "è®ºè¯ģ": 7207,
      "èĳĽ": 7208,
      "æĹ¥åĲĳ": 7209,
      "ä¸ĬæĿīæĻ¯èĥľ": 7210,
      "å¸¸éĻĨ": 7211,
      "sour": 7212,
      "å®ŀä¾ĭ": 7213,
      "overall": 7214,
      "åĩºä»»": 7215,
      "å´Ľèµ·": 7216,
      "åıĳçĹħ": 7217,
      "æľīéĻĲåħ¬åı¸": 7218,
      "arrow": 7219,
      "Sy": 7220,
      "progno": 7221,
      "æĬ±": 7222,
      "ä¼Ĭè¾¾æĶ¿å®Ĺ": 7223,
      "lex": 7224,
      "ç«Ń": 7225,
      "ough": 7226,
      "separ": 7227,
      "çī©ä½ĵ": 7228,
      "èİ²": 7229,
      "çŃĽ": 7230,
      "æĹ¢æľī": 7231,
      "è§Ĩéĩİ": 7232,
      "èĹ©ä¸»": 7233,
      "å¸ĥéĺµ": 7234,
      "performance": 7235,
      "unt": 7236,
      "ä»¥å¾Ģ": 7237,
      "ä¸īåįĥ": 7238,
      "average": 7239,
      "å¢ĥåĨħ": 7240,
      "æ¦Ĥçİĩ": 7241,
      "åİŁåĳĬ": 7242,
      "understanding": 7243,
      "åĨĪå´İ": 7244,
      "remo": 7245,
      "elev": 7246,
      "ä¾ĭåŃĲ": 7247,
      "training": 7248,
      "æ³ķåĪ¶": 7249,
      "PI": 7250,
      "Po": 7251,
      "ç¬¬åħ«": 7252,
      "carri": 7253,
      "å®¡æī¹": 7254,
      "èī²å½©": 7255,
      "critical": 7256,
      "transfer": 7257,
      "çķĻå®Ī": 7258,
      "åįĥä»£": 7259,
      "kines": 7260,
      "istration": 7261,
      "ç»§ä»»": 7262,
      "ä»¥ä¾¿": 7263,
      "ãģ¨": 7264,
      "ues": 7265,
      "äºĶåįĥ": 7266,
      "åĩıè½»": 7267,
      "sequences": 7268,
      "ä¹ĭåĲį": 7269,
      "èĨ¨èĥĢ": 7270,
      "âĦ": 7271,
      "å®ĹèĮĤ": 7272,
      "å¿Ļ": 7273,
      "çģ¯": 7274,
      "events": 7275,
      "çĪ¶æ¯į": 7276,
      "æİ¥çĿĢ": 7277,
      "é©¾é©¶": 7278,
      "ç²¾åº¦": 7279,
      "tests": 7280,
      "areas": 7281,
      "åĩ¸": 7282,
      "lications": 7283,
      "æĹ¥è®°": 7284,
      "take": 7285,
      "èĸª": 7286,
      "ç½ĳç«Ļ": 7287,
      "exer": 7288,
      "å²Ń": 7289,
      "HS": 7290,
      "chall": 7291,
      "å·¥åİĤ": 7292,
      "drugs": 7293,
      "çĮª": 7294,
      "ä¼´éļı": 7295,
      "éĻĨå¥¥": 7296,
      "çĻ½æ²³": 7297,
      "æ³·å·Ŀ": 7298,
      "çģ¾å®³": 7299,
      "subst": 7300,
      "è¡¡éĩı": 7301,
      "ç¼ĸçłģ": 7302,
      "az": 7303,
      "è£Ķ": 7304,
      "adv": 7305,
      "One": 7306,
      "å¯ºéĻ¢": 7307,
      "åį³åı¯": 7308,
      "åĽĬ": 7309,
      "å¯¹ç§°": 7310,
      "çİ°éĩĳ": 7311,
      "åĪĨäº«": 7312,
      "æĩĤ": 7313,
      "observ": 7314,
      "TB": 7315,
      "âĨĴ": 7316,
      "èĢĥåı¤": 7317,
      "æĸĩçī©": 7318,
      "don": 7319,
      "å®°": 7320,
      "å°±è¦ģ": 7321,
      "ä¸Ģè¯´": 7322,
      "bor": 7323,
      "æĿĥéĻĲ": 7324,
      "lled": 7325,
      "iting": 7326,
      "ä¹ĭåĳ½": 7327,
      "abil": 7328,
      "sof": 7329,
      "åŁºçĿ£": 7330,
      "åįıä¼ļ": 7331,
      "çĶŁå¹³": 7332,
      "section": 7333,
      "èĤ¥åīį": 7334,
      "å¼ĺæī¬": 7335,
      "åĲīçĶ°": 7336,
      "certain": 7337,
      "pair": 7338,
      "ç©´": 7339,
      "criteria": 7340,
      "ä¸¤å®¶": 7341,
      "tested": 7342,
      "å¼ķçĶ¨": 7343,
      "calculated": 7344,
      "1590": 7345,
      "è¢«åĳĬäºº": 7346,
      "éļıä¹ĭ": 7347,
      "æ¶Ĥ": 7348,
      "og": 7349,
      "poor": 7350,
      "è®¢ç«ĭ": 7351,
      "ä¸Ģäºº": 7352,
      "æĦ¿æĦı": 7353,
      "èģĶéĤ¦": 7354,
      "æģ¨": 7355,
      "è´Łè´£äºº": 7356,
      "çłĶç©¶èĢħ": 7357,
      "count": 7358,
      "äººå£«": 7359,
      "éĶħ": 7360,
      "diffic": 7361,
      "uture": 7362,
      "sites": 7363,
      "markers": 7364,
      "decrease": 7365,
      "National": 7366,
      "é¹¤": 7367,
      "æĪĺçº¿": 7368,
      "paren": 7369,
      "bur": 7370,
      "tas": 7371,
      "collected": 7372,
      "åºµ": 7373,
      "åĽ½æĥħ": 7374,
      "label": 7375,
      "ney": 7376,
      "æ·ĭ": 7377,
      "ey": 7378,
      "åı¯çĶ¨": 7379,
      "osis": 7380,
      "åĬ¨æľº": 7381,
      "æĿ¡çº¦": 7382,
      "å·®åĪ«": 7383,
      "åħ¬å®ī": 7384,
      "ä¸¤å¤§": 7385,
      "necess": 7386,
      "åĮ»èį¯": 7387,
      "çĶŁæķĪ": 7388,
      "refore": 7389,
      "therefore": 7390,
      "è£ģå®ļ": 7391,
      "ä¹īåħī": 7392,
      "å¼ķè¿Ľ": 7393,
      "å¾ģç¨ĭ": 7394,
      "æĸľ": 7395,
      "è¿ĩæ¸¡": 7396,
      "åħļå§Ķ": 7397,
      "ç¬ĳ": 7398,
      "made": 7399,
      "AI": 7400,
      "åľ°éľĩ": 7401,
      "testing": 7402,
      "ä¸Ńå²Ľ": 7403,
      "phosphory": 7404,
      "***": 7405,
      "éĺµèĲ¥": 7406,
      "discus": 7407,
      "åĻª": 7408,
      "é¸£": 7409,
      "ç¢±": 7410,
      "å¼Ĺ": 7411,
      "ç¼ĸåĨĻ": 7412,
      "stre": 7413,
      "äº¤ä»ĺ": 7414,
      "æĹ¥åĨĽ": 7415,
      "å¼ĺæ²»": 7416,
      "èģĮæĿĥ": 7417,
      "mitochond": 7418,
      "GS": 7419,
      "æľĢå¥½": 7420,
      "thy": 7421,
      "protocol": 7422,
      "RNAs": 7423,
      "åĩºèĩª": 7424,
      "iratory": 7425,
      "baseline": 7426,
      "Dr": 7427,
      "cies": 7428,
      "knowledge": 7429,
      "ä¸ĢçĽĬ": 7430,
      "å¢ŀéĢŁ": 7431,
      "PM": 7432,
      "å®īè£ħ": 7433,
      "field": 7434,
      "mol": 7435,
      "ible": 7436,
      "çķ¿åĨħ": 7437,
      "ensity": 7438,
      "âĹ": 7439,
      "è¾Ī": 7440,
      "å®ĺä½į": 7441,
      "Col": 7442,
      "èĩªè¡Į": 7443,
      "carcinoma": 7444,
      "æ¿Ģåħī": 7445,
      "ker": 7446,
      "å¼Ĭ": 7447,
      "éĤ®": 7448,
      "åħħæ»¡": 7449,
      "sex": 7450,
      "èĲĦ": 7451,
      "å¼ĢåĲ¯": 7452,
      "æĹĹå¸ľ": 7453,
      "abnormal": 7454,
      "è¯¾åłĤæķĻåŃ¦": 7455,
      "âĢĲ": 7456,
      "éĢĢåĩº": 7457,
      "éĽĨåĲĪ": 7458,
      "published": 7459,
      "host": 7460,
      "å±±ä¸ľ": 7461,
      "RO": 7462,
      "å¤§åĿĤåŁİ": 7463,
      "è´¯ç©¿": 7464,
      "åħĥæĺ¥": 7465,
      "selected": 7466,
      "è¢ĸ": 7467,
      "å¤§äºİ": 7468,
      "èĲ¨æĳ©": 7469,
      "functions": 7470,
      "pic": 7471,
      "physical": 7472,
      "æĢ»æĺ¯": 7473,
      "èĳ¡èĲĦ": 7474,
      "æ¬ł": 7475,
      "åīĸ": 7476,
      "å½ĵä»Ĭ": 7477,
      "æŀĿ": 7478,
      "éĿ¢åīį": 7479,
      "èĪªç©º": 7480,
      "cere": 7481,
      "hetero": 7482,
      "åµĮ": 7483,
      "reflec": 7484,
      "ps": 7485,
      "her": 7486,
      "ä¹¦ä¿¡": 7487,
      "adjust": 7488,
      "Instit": 7489,
      "damage": 7490,
      "uscript": 7491,
      "å¯¹å¾ħ": 7492,
      "åºĻ": 7493,
      "åħĭæľį": 7494,
      "ters": 7495,
      "ç¥¥": 7496,
      "als": 7497,
      "processes": 7498,
      "lipid": 7499,
      "diagnostic": 7500,
      "å®¡æł¸": 7501,
      "å§¿": 7502,
      "æł¸ç®Ĺ": 7503,
      "tool": 7504,
      "simul": 7505,
      "elec": 7506,
      "çĿ¦": 7507,
      "hand": 7508,
      "çŃĴäºķ": 7509,
      "ä¸īæµ¦": 7510,
      "åĮĹæĿ¡æ°ıåº·": 7511,
      "åĮĹéĥ¨": 7512,
      "å¤ĩåīį": 7513,
      "scan": 7514,
      "NT": 7515,
      "å®ĹéºŁ": 7516,
      "wer": 7517,
      "central": 7518,
      "åįĵ": 7519,
      "åįģäºĮå¹´": 7520,
      "åīįèĢħ": 7521,
      "æľĢè¿ĳ": 7522,
      "æłĩçļĦ": 7523,
      "åĪĨæĶ¯": 7524,
      "version": 7525,
      "è¡¨è¿°": 7526,
      "directly": 7527,
      "æľ¬åľ°": 7528,
      "educ": 7529,
      "Per": 7530,
      "ä»ĬåĲİ": 7531,
      "åĬŁçİĩ": 7532,
      "åŃŁ": 7533,
      "åĩºäºİ": 7534,
      "induc": 7535,
      "iatric": 7536,
      "çĹħéĢĿ": 7537,
      "mentation": 7538,
      "measures": 7539,
      "åı¦æľī": 7540,
      "éĢıæĺİ": 7541,
      "æł¼å¼ı": 7542,
      "çºªä¼Ĭ": 7543,
      "å¹¿ä¸ľ": 7544,
      "éģĹåĿĢ": 7545,
      "äº¿ç¾İåħĥ": 7546,
      "biological": 7547,
      "ancy": 7548,
      "è¿ģç§»": 7549,
      "åĩºå¾ģ": 7550,
      "ä¸ŃåĽ½åĮĸ": 7551,
      "ï¼ħ": 7552,
      "å¤§çº¦": 7553,
      "affected": 7554,
      "shows": 7555,
      "variables": 7556,
      "opath": 7557,
      "Moreover": 7558,
      "å¥¥å·ŀ": 7559,
      "åŃ¦è¯´": 7560,
      "äºķä¼Ĭ": 7561,
      "now": 7562,
      "ç»ıæµİä½ĵåĪ¶": 7563,
      "åĢ¡å¯¼": 7564,
      "manuscript": 7565,
      "ially": 7566,
      "æľĢå°ı": 7567,
      "æŁĶ": 7568,
      "stric": 7569,
      "rich": 7570,
      "------------------------": 7571,
      "repe": 7572,
      "åºŀ": 7573,
      "åŃķ": 7574,
      "çĶµå½±": 7575,
      "æĮģæľī": 7576,
      "å¯¹è¯Ŀ": 7577,
      "electro": 7578,
      "æľ¬åĽ½": 7579,
      "ä¸ĭéĿ¢": 7580,
      "BL": 7581,
      "ä¿¡æīĺ": 7582,
      "populations": 7583,
      "still": 7584,
      "vac": 7585,
      "ä¸Ģéĥ¨": 7586,
      "ä¸¤äºº": 7587,
      "å¥ĭæĪĺ": 7588,
      "ç§ģäºº": 7589,
      "ä¸Ģä¸ĭ": 7590,
      "æĬĵä½ı": 7591,
      "åĲŀ": 7592,
      "æŃ»åİ»": 7593,
      "gether": 7594,
      "å·¥ä½ľäººåĳĺ": 7595,
      "IO": 7596,
      "ä¹īä¹ħ": 7597,
      "åĮĸè§£": 7598,
      "å¾¡å®¶äºº": 7599,
      "æ·±åĮĸæĶ¹éĿ©": 7600,
      "rest": 7601,
      "ä¹ħä¿Ŀ": 7602,
      "investigated": 7603,
      "cancers": 7604,
      "åªĴä»ĭ": 7605,
      "æħĪ": 7606,
      "åĮĹæĸ¹": 7607,
      "æĹĹæľ¬": 7608,
      "monary": 7609,
      "è¾½": 7610,
      "ç¯ł": 7611,
      "physi": 7612,
      "five": 7613,
      "çĽ¸å½ĵäºİ": 7614,
      "åħ¬åį¿": 7615,
      "å°Ĩä¼ļ": 7616,
      "modul": 7617,
      "å¥ĭæĸĹçĽ®æłĩ": 7618,
      "æłĭ": 7619,
      "ãģĦ": 7620,
      "proposed": 7621,
      "è¶³è½»": 7622,
      "ç»ıèĲ¥èĢħ": 7623,
      "commend": 7624,
      "ç»ĪæŃ¢": 7625,
      "ä½Ĳä¹ħéĹ´": 7626,
      "ç®Ģä»ĭ": 7627,
      "ä¾¿åĪ©": 7628,
      "æĿĢæŃ»": 7629,
      "é£Łçī©": 7630,
      "è¿Ĳç®Ĺ": 7631,
      "æĹ¶åĪ»": 7632,
      "éĩįç»Ħ": 7633,
      "æĸ°åĨł": 7634,
      "åĳ¨éĺ²": 7635,
      "Wi": 7636,
      "ãģŁ": 7637,
      "recommend": 7638,
      "å¤ªéĥİ": 7639,
      "è¯īè®¼æ³ķ": 7640,
      "å¤ºåĽŀ": 7641,
      "çī²": 7642,
      "adap": 7643,
      "çłĶç©¶çĶŁ": 7644,
      "éļĲç§ģ": 7645,
      "ä¸Ńå°ıä¼ģä¸ļ": 7646,
      "bil": 7647,
      "estern": 7648,
      "ä¸Ģçº§": 7649,
      "åŃĺæ¬¾": 7650,
      "correc": 7651,
      "çĨŁæĤī": 7652,
      "åľ°ä¸ĭ": 7653,
      "EB": 7654,
      "æ¬£": 7655,
      "è·Łéļı": 7656,
      "ç»Ļåĩº": 7657,
      "åĪĨå¸ĥå¼ı": 7658,
      "spective": 7659,
      "400": 7660,
      "æĸ°çĶ°": 7661,
      "åī©ä½Ļ": 7662,
      "åĬĽåŃ¦": 7663,
      "reduc": 7664,
      "çĩĥæĸĻ": 7665,
      "åĽ°å¢ĥ": 7666,
      "éģŃåıĹ": 7667,
      "angio": 7668,
      "ä¸ĢéĿ¢": 7669,
      "management": 7670,
      "practice": 7671,
      "æµ·ä¸Ĭ": 7672,
      "åħ¬å¼ı": 7673,
      "å¤§èĦĳ": 7674,
      "æ²»åĽ½": 7675,
      "experimental": 7676,
      "è¯»èĢħ": 7677,
      "äºĶçĻ¾": 7678,
      "ä¸¤å¹´": 7679,
      "intest": 7680,
      "é¢ĨåľŁ": 7681,
      "ä¾µçķ¥": 7682,
      "Stud": 7683,
      "å¦»åŃĲ": 7684,
      "dri": 7685,
      "æľ¨æĿĳ": 7686,
      "éĴĪå¯¹æĢ§": 7687,
      "æĺİåºĶ": 7688,
      "oratory": 7689,
      "alysis": 7690,
      "fusion": 7691,
      "scores": 7692,
      "geno": 7693,
      "åŃ¦çķĮ": 7694,
      "Ph": 7695,
      "ä¸īäººä¼Ĺ": 7696,
      "ç»ĥä¹ł": 7697,
      "åĳĬçŁ¥": 7698,
      "è°ĥåĬ¨": 7699,
      "ä»£æĽ¿": 7700,
      "ga": 7701,
      "åįķçº¯": 7702,
      "è½¦è¾Ĩ": 7703,
      "äºīåıĸ": 7704,
      "è¾ħä½Ĳ": 7705,
      "Clin": 7706,
      "aired": 7707,
      "suggesting": 7708,
      "¤Ĳ": 7709,
      "mM": 7710,
      "wide": 7711,
      "wa": 7712,
      "æĪĪ": 7713,
      "ç§įæ¤į": 7714,
      "tim": 7715,
      "loy": 7716,
      "æĶ¹ä¸º": 7717,
      "æīĢè¯´": 7718,
      "åĨħå¤ĸ": 7719,
      "agon": 7720,
      "ç¼ĸç¨ĭ": 7721,
      "mass": 7722,
      "CH": 7723,
      "ä»İä¸¥": 7724,
      "ä¸ĢæĶ¯": 7725,
      "çİĩåħĪ": 7726,
      "å¤§æ°¸": 7727,
      "agen": 7728,
      "çŃīäºİ": 7729,
      "çĦļ": 7730,
      "è¯ģå®ŀ": 7731,
      "åĪ©æģ¯": 7732,
      "ä»İæŃ¤": 7733,
      "ä¸Ģå¥Ĺ": 7734,
      "èĪŁ": 7735,
      "éķ¿ç§Ģ": 7736,
      "ç³»ç»ŁæĢ§": 7737,
      "maint": 7738,
      "è¯ģä¹¦": 7739,
      "æĥ§": 7740,
      "points": 7741,
      "è´¦æĪ·": 7742,
      "èģļéĽĨ": 7743,
      "åĴĮçĶ°": 7744,
      "ä¸īæĿ¡": 7745,
      "æĪĺäºĭ": 7746,
      "inally": 7747,
      "èĢ¶": 7748,
      "èĩ´åĬĽäºİ": 7749,
      "å®ªæĶ¿": 7750,
      "çĸ«èĭĹ": 7751,
      "æĪĸè®¸": 7752,
      "åįģä¸Ģå¹´": 7753,
      "çİĭæľĿ": 7754,
      "2004": 7755,
      "èĥĥ": 7756,
      "åıĶçĪ¶": 7757,
      "æĭ¼": 7758,
      "ä½İç¢³": 7759,
      "åĲİç»Ń": 7760,
      "èĦĬ": 7761,
      "ä¼ļæ´¥": 7762,
      "kinase": 7763,
      "electr": 7764,
      "homo": 7765,
      "2003": 7766,
      "real": 7767,
      "ç¼ĵè§£": 7768,
      "äº«åıĹ": 7769,
      "ä¾µåħ¥": 7770,
      "clud": 7771,
      "éĩĳé¢Ŀ": 7772,
      "setting": 7773,
      "æİ¨åĩº": 7774,
      "BR": 7775,
      "1570": 7776,
      "çī©åĵģ": 7777,
      "ified": 7778,
      "å¤ĸæ±ĩ": 7779,
      "ä¼łæķĻ": 7780,
      "ä¸įçŁ¥": 7781,
      "çĶµè§Ĩ": 7782,
      "initi": 7783,
      "ç¡«": 7784,
      "ring": 7785,
      "mas": 7786,
      "å»ºç«ĭåģ¥åħ¨": 7787,
      "portion": 7788,
      "æŁĲä¸ª": 7789,
      "çŁ³è§ģ": 7790,
      "plac": 7791,
      "inhibitor": 7792,
      "subsequ": 7793,
      "seen": 7794,
      "åħ´èµ·": 7795,
      "nit": 7796,
      "ä¾µæĶ»": 7797,
      "è¿½ç©¶": 7798,
      "å¾®è§Ĥ": 7799,
      "ä¹īæĻ¯": 7800,
      "isolated": 7801,
      "æĬĽ": 7802,
      "èĢķåľ°": 7803,
      "liter": 7804,
      "å¼Ģè¾Ł": 7805,
      "æ³Į": 7806,
      "ä¸»ç®¡éĥ¨éĹ¨": 7807,
      "æīĳ": 7808,
      "èĬĤçº¦": 7809,
      "æĺĮå¹¸": 7810,
      "ä¸ľéĥ¨": 7811,
      "æ¸Ķ": 7812,
      "æµĭå®ļ": 7813,
      "meric": 7814,
      "æºĲä¹ī": 7815,
      "versus": 7816,
      "éĨĩ": 7817,
      "è¿Ļé¡¹": 7818,
      "èµĦäº§éĺ¶çº§": 7819,
      "èĩªç§°": 7820,
      "GE": 7821,
      "medium": 7822,
      "cise": 7823,
      "caused": 7824,
      "åįĹæĸ¹": 7825,
      "epithelial": 7826,
      "ok": 7827,
      "å¿łè¯ļ": 7828,
      "ç³»æķ°": 7829,
      "åĸĦäºİ": 7830,
      "ä¿Ħç½Ĺæĸ¯": 7831,
      "å¸¸æĢģ": 7832,
      "åīįæĻ¯": 7833,
      "consistent": 7834,
      "initial": 7835,
      "èļĢ": 7836,
      "å±±åı£": 7837,
      "æŃ¤ç±»": 7838,
      "çĭŃéĹ´": 7839,
      "å®Īå¤ĩ": 7840,
      "è¿ĩéĶĻ": 7841,
      "å½Ĵå±ŀ": 7842,
      "olution": 7843,
      "oste": 7844,
      "é¥±": 7845,
      "éģŃéģĩ": 7846,
      "å¸Ĳ": 7847,
      "åįļçī©": 7848,
      "æŁ¥è¯¢": 7849,
      "motor": 7850,
      "ä¹ĭåľ°": 7851,
      "å²Ĳéĺľ": 7852,
      "question": 7853,
      "å¿Į": 7854,
      "èµ·çĤ¹": 7855,
      "ç¬¬äºĮä¸ª": 7856,
      "æ¸ħåįķ": 7857,
      "åĪĽæĸ°èĥ½åĬĽ": 7858,
      "è±¡å¾ģ": 7859,
      "cult": 7860,
      "cules": 7861,
      "æĮĩå¼ķ": 7862,
      "èĩªå°½": 7863,
      "cross": 7864,
      "æ¶Īå¤±": 7865,
      "æļĸ": 7866,
      "åıĤçħ§": 7867,
      "éªļ": 7868,
      "ãĢİ": 7869,
      "éĻĲåº¦": 7870,
      "ç¬¬ä¸īèĬĤ": 7871,
      "ä¸Ńä»ĭ": 7872,
      "few": 7873,
      "appropri": 7874,
      "åĪł": 7875,
      "å°ºåº¦": 7876,
      "ä»ªåĻ¨": 7877,
      "ä¿¡è´·": 7878,
      "åĪĿå§ĭ": 7879,
      "ä¸īåĽ½": 7880,
      "infections": 7881,
      "åĲ¹": 7882,
      "ones": 7883,
      "ãĢı": 7884,
      "è¿ĩäºİ": 7885,
      "EA": 7886,
      "åı¤åħ¸": 7887,
      "å®¶éķ¿": 7888,
      "although": 7889,
      "æŃ£åĪĻ": 7890,
      "æľ¬æĿ¥": 7891,
      "chann": 7892,
      "ä¿¡å¿ĥ": 7893,
      "çºªå¿µ": 7894,
      "failure": 7895,
      "prevalence": 7896,
      "åĽ½ä¼Ĺ": 7897,
      "release": 7898,
      "lesions": 7899,
      "agents": 7900,
      "DC": 7901,
      "ng": 7902,
      "åħ¶ä½Ļ": 7903,
      "è£ģåĨ³": 7904,
      "colon": 7905,
      "çº¿ç¨ĭ": 7906,
      "å¸ĪèĮĥ": 7907,
      "ç²¾ç¡®": 7908,
      "åľ°çĤ¹": 7909,
      "ç¬¬ä¹Ŀ": 7910,
      "å¡ĳéĢł": 7911,
      "ç²ĺ": 7912,
      "æĬ¤çĲĨ": 7913,
      "å¾Īéļ¾": 7914,
      "æ·»åĬł": 7915,
      "æĪĺæľ¯": 7916,
      "Medic": 7917,
      "éĻķ": 7918,
      "ç¥Ŀ": 7919,
      "astro": 7920,
      "æļ´åĬĽ": 7921,
      "lan": 7922,
      "Na": 7923,
      "åŃĶåŃĲ": 7924,
      "å¸¸è§Ħ": 7925,
      "çĶŁçī©åŃ¦": 7926,
      "åĩłå¹´": 7927,
      "ler": 7928,
      "éĻµ": 7929,
      "mole": 7930,
      "å¿ĥçĲĨåŃ¦": 7931,
      "categ": 7932,
      "imin": 7933,
      "éļ¾åº¦": 7934,
      "å¹´åºķ": 7935,
      "Br": 7936,
      "åĽŀåºĶ": 7937,
      "surve": 7938,
      "æ»¡æĦı": 7939,
      "æĬĹä½ĵ": 7940,
      "å£°æĺİ": 7941,
      "åŁİä¸ĭ": 7942,
      "hepati": 7943,
      "åıĹçĲĨ": 7944,
      "ä¼¤å®³": 7945,
      "cohort": 7946,
      "åĪ°åºķ": 7947,
      "ä¸Ģä¸ĩ": 7948,
      "å¹³å®ī": 7949,
      "GG": 7950,
      "confirmed": 7951,
      "éĻĲäºİ": 7952,
      "studied": 7953,
      "åħ¬çº¦": 7954,
      "call": 7955,
      "suggested": 7956,
      "Results": 7957,
      "influence": 7958,
      "metabolic": 7959,
      "èµ·ä¹ī": 7960,
      "æĭ¨": 7961,
      "çļĩå¸Ŀ": 7962,
      "seg": 7963,
      "pH": 7964,
      "æ°ĶåĢĻåıĺåĮĸ": 7965,
      "çĶµç½ĳ": 7966,
      "æ®ĸæ°ĳ": 7967,
      "let": 7968,
      "æ¢³": 7969,
      "å±ĢåĬ¿": 7970,
      "synap": 7971,
      "oxygen": 7972,
      "density": 7973,
      "åºĶçĶ¨ç¨ĭåºı": 7974,
      "çłĶç©¶éĻ¢": 7975,
      "æ°ĳèĲ¥": 7976,
      "relevant": 7977,
      "æĢ¨": 7978,
      "çĵ¶": 7979,
      "increases": 7980,
      "å¤ļåħĥåĮĸ": 7981,
      "æĢ¥æĢ§": 7982,
      "åı¯éĿłæĢ§": 7983,
      "ä¸ĬçĶ°": 7984,
      "åįıå®ļ": 7985,
      "ification": 7986,
      "æī®": 7987,
      "absence": 7988,
      "æĴŀ": 7989,
      "reas": 7990,
      "biom": 7991,
      "chool": 7992,
      "ç¡ķ": 7993,
      "peak": 7994,
      "è¡¥è´´": 7995,
      "éĤ£éĩĮ": 7996,
      "åĽĽæĺ¯": 7997,
      "åįĹäº¬": 7998,
      "é¼»": 7999,
      "periph": 8000,
      "æŃ¤æĪĺ": 8001,
      "è´±": 8002,
      "æ¤İ": 8003,
      "construc": 8004,
      "å½Ĵçº³": 8005,
      "çĽ´æĶ¿": 8006,
      "å°ıæĹ©å·ĿéļĨæĻ¯": 8007,
      "ergy": 8008,
      "ä¸ĵé¢ĺ": 8009,
      "åĲĦæĹı": 8010,
      "èĤ©": 8011,
      "ä¸ŃçŃī": 8012,
      "æĲ¬": 8013,
      "å¼¹æĢ§": 8014,
      "reli": 8015,
      "ä½¿çĶ¨æĿĥ": 8016,
      "ç»ĨèıĮ": 8017,
      "here": 8018,
      "å¤§èĩ´": 8019,
      "hal": 8020,
      "æħ¢æĢ§": 8021,
      "rix": 8022,
      "domain": 8023,
      "çĶŁåĬ¨": 8024,
      "NC": 8025,
      "å³Ļ": 8026,
      "æĬ¥éħ¬": 8027,
      "å¸¸å¸¸": 8028,
      "éĶ»": 8029,
      "æİ©": 8030,
      "reference": 8031,
      "success": 8032,
      "chro": 8033,
      "é¢ĳç¹ģ": 8034,
      "æł¡åĽŃ": 8035,
      "çĽ²": 8036,
      "éĽĨç¾¤": 8037,
      "Âµ": 8038,
      "éļĨä¿¡": 8039,
      "cycle": 8040,
      "week": 8041,
      "Int": 8042,
      "emia": 8043,
      "å¯¹æİ¥": 8044,
      "molecules": 8045,
      "å¹½": 8046,
      "1573": 8047,
      "è¡Ģæ¶²": 8048,
      "å¤§åĪ©": 8049,
      "ä¼Ĭè±«": 8050,
      "fund": 8051,
      "duction": 8052,
      "éķ¿éĩİ": 8053,
      "æķ·": 8054,
      "æ»´": 8055,
      "æĬ«éľ²": 8056,
      "correlated": 8057,
      "gical": 8058,
      "facil": 8059,
      "åıįæĬĹ": 8060,
      "çĽ¸ä¼ł": 8061,
      "ä¸ĭæĢ»": 8062,
      "DS": 8063,
      "stained": 8064,
      "imple": 8065,
      "fold": 8066,
      "å¦ĤåĽ¾": 8067,
      "å¸¦æľī": 8068,
      "æĿ¾æ°¸ä¹ħ": 8069,
      "æĿ¾æ°¸ä¹ħç§Ģ": 8070,
      "intrac": 8071,
      "ä¸ŃåĽ½äººæ°ĳ": 8072,
      "äººåĬĽèµĦæºĲ": 8073,
      "interval": 8074,
      "åĭŁ": 8075,
      "ç§Ģéķ¿": 8076,
      "è§Ħç«ł": 8077,
      "å®Ĺå®¶": 8078,
      "æĦ¤": 8079,
      "enced": 8080,
      "æ´¥åŁİ": 8081,
      "çİ©": 8082,
      "åŁºåĽłç»Ħ": 8083,
      "æľīæķĪæĢ§": 8084,
      "äºĶä¸ª": 8085,
      "ä¸ªåĪ«": 8086,
      "åĨ³å¿ĥ": 8087,
      "å®£åĳĬ": 8088,
      "tur": 8089,
      "åĽ¾å½¢": 8090,
      "è¦ģä»¶": 8091,
      "izing": 8092,
      "generated": 8093,
      "é»İ": 8094,
      "å½°æĺ¾": 8095,
      "memory": 8096,
      "pregn": 8097,
      "æĥľ": 8098,
      "leading": 8099,
      "åºĶä»ģä¹ĭä¹±": 8100,
      "åıĺè¿ģ": 8101,
      "FS": 8102,
      "ä¸īæĹ¥": 8103,
      "åį³å°Ĩ": 8104,
      "rapid": 8105,
      "ä¸¢": 8106,
      "æŁĵèī²": 8107,
      "resulting": 8108,
      "æľįä»İ": 8109,
      "ä¹ĭä¸º": 8110,
      "complete": 8111,
      "åĩ¯": 8112,
      "file": 8113,
      "å¾½": 8114,
      "vess": 8115,
      "çĽ¸ä¿¡": 8116,
      "èİ·èµĲ": 8117,
      "ground": 8118,
      "particularly": 8119,
      "trig": 8120,
      "ä¸įç¡®å®ļæĢ§": 8121,
      "species": 8122,
      "received": 8123,
      "éļıåį³": 8124,
      "å¥ĳçº¦": 8125,
      "éĺ»æŃ¢": 8126,
      "æ£Ģå¯ŁéĻ¢": 8127,
      "æĹ¥æľŁ": 8128,
      "uble": 8129,
      "èĥ½çĻ»": 8130,
      "endothelial": 8131,
      "æĬĢæľ¯åĪĽæĸ°": 8132,
      "æ¡¶çĭŃéĹ´": 8133,
      "æīŃ": 8134,
      "è°ĥçĶ¨": 8135,
      "ãģ¯": 8136,
      "reduce": 8137,
      "å¸¸å§Ķä¼ļ": 8138,
      "ÎĶ": 8139,
      "å®¾": 8140,
      "å¤©çİĭ": 8141,
      "alg": 8142,
      "å±±åİ¿": 8143,
      "applied": 8144,
      "æĥ³è¦ģ": 8145,
      "æľīåĪ¶": 8146,
      "å®ŀåľ¨": 8147,
      "tation": 8148,
      "åĴĮæ³ī": 8149,
      "å¹»": 8150,
      "éĽķ": 8151,
      "median": 8152,
      "åħ±å»º": 8153,
      "components": 8154,
      "åĩĮ": 8155,
      "ä¸Ĭçº§": 8156,
      "ç»ĵçĽŁ": 8157,
      "interven": 8158,
      "æĢģåĬ¿": 8159,
      "exhib": 8160,
      "æĢ»ä¹ĭ": 8161,
      "ä¸°åīį": 8162,
      "leep": 8163,
      "fully": 8164,
      "ä¸Ģç±»": 8165,
      "scale": 8166,
      "åħ³å¿ĥ": 8167,
      "termin": 8168,
      "ä½ĵåĪ¶æĶ¹éĿ©": 8169,
      "æŁı": 8170,
      "ologic": 8171,
      "what": 8172,
      "ä¸ºé¦ĸ": 8173,
      "evaluation": 8174,
      "åĨ»": 8175,
      "è¿«ä½¿": 8176,
      "history": 8177,
      "çŁ³æ²¹": 8178,
      "åĮĸåĲĪçī©": 8179,
      "When": 8180,
      "åľ°è´¨": 8181,
      "åŀĥ": 8182,
      "åľ¾": 8183,
      "suggests": 8184,
      "2001": 8185,
      "è¾°": 8186,
      "ä¸ºæŃ¢": 8187,
      "è¯¯å·®": 8188,
      "æĶ»åħ¥": 8189,
      "graphic": 8190,
      "åĲĪè§Ħ": 8191,
      "çº¢åĨĽ": 8192,
      "è°ĥçłĶ": 8193,
      "ç²ĴåŃĲ": 8194,
      "åİī": 8195,
      "åŀĥåľ¾": 8196,
      "tle": 8197,
      "æĹłçº¿": 8198,
      "Sim": 8199,
      "å·¥åķĨ": 8200,
      "since": 8201,
      "ç»ĺçĶ»": 8202,
      "æĥħæĬ¥": 8203,
      "Americ": 8204,
      "éļĻ": 8205,
      "patterns": 8206,
      "äºĮçĻ¾": 8207,
      "istic": 8208,
      "Meth": 8209,
      "å°½åı¯èĥ½": 8210,
      "final": 8211,
      "ped": 8212,
      "æł·åĵģ": 8213,
      "å½¼æŃ¤": 8214,
      "stro": 8215,
      "åŃ¦ä½į": 8216,
      "å£®å¤§": 8217,
      "HF": 8218,
      "çĭĤ": 8219,
      "tors": 8220,
      "rup": 8221,
      "æīĵç®Ĺ": 8222,
      "vered": 8223,
      "æľªç»ı": 8224,
      "éĻª": 8225,
      "æĸ½è¡Į": 8226,
      "äº§éĺ¶çº§": 8227,
      "ç¥ĸåĽ½": 8228,
      "åħļåı²": 8229,
      "åĲı": 8230,
      "Medical": 8231,
      "æ¶µçĽĸ": 8232,
      "æĸ°èĥ½æºĲ": 8233,
      "ä¸Ģæµģ": 8234,
      "begin": 8235,
      "æĢĢçĸĳ": 8236,
      "achie": 8237,
      "ç¨į": 8238,
      "established": 8239,
      "åĨ¢": 8240,
      "dy": 8241,
      "vities": 8242,
      "regression": 8243,
      "åįģæĿ¡": 8244,
      "fact": 8245,
      "ino": 8246,
      "å¸ĪçĶŁ": 8247,
      "comparison": 8248,
      "ç¼´çº³": 8249,
      "ä¹ĭå¥³": 8250,
      "ns": 8251,
      "å¿ĥèĦı": 8252,
      "äºĮæ°§åĮĸ": 8253,
      "2002": 8254,
      "åĮ»çĶŁ": 8255,
      "TGF": 8256,
      "åĲİéĨįéĨĲ": 8257,
      "åĲİéĨįéĨĲå¤©çļĩ": 8258,
      "transi": 8259,
      "kid": 8260,
      "peptide": 8261,
      "environment": 8262,
      "æģ¶åĮĸ": 8263,
      "inary": 8264,
      "åĻ¨ä»¶": 8265,
      "adult": 8266,
      "å¯¹å³Ļ": 8267,
      "nology": 8268,
      "orescence": 8269,
      "ae": 8270,
      "éķ¿åº¦": 8271,
      "æĶ¹æĺĵ": 8272,
      "RP": 8273,
      "detail": 8274,
      "cru": 8275,
      "recor": 8276,
      "lay": 8277,
      "éªıåºľ": 8278,
      "åĳĬè¯ī": 8279,
      "cons": 8280,
      "æµģä¼ł": 8281,
      "çīº": 8282,
      "çŃīå¾ħ": 8283,
      "æłĩè®°": 8284,
      "ched": 8285,
      "è¶³åĪ©å°Ĭæ°ı": 8286,
      "Hz": 8287,
      "èĩ³åħ³": 8288,
      "cial": 8289,
      "æī©æķ£": 8290,
      "èĨ³": 8291,
      "é«ĺæ¡¥": 8292,
      "remains": 8293,
      "çī¹å¼Ĥ": 8294,
      "é¢Ĺç²Ĵ": 8295,
      "åĽŀæĶ¶": 8296,
      "çłĶç©¶æĪĲæŀľ": 8297,
      "çĤ¸": 8298,
      "åĿļå®ŀ": 8299,
      "Immun": 8300,
      "future": 8301,
      "é©±éĢĲ": 8302,
      "åħĨ": 8303,
      "åĲ«æľī": 8304,
      "åıĳæĢ§": 8305,
      "åħ±äº§ä¸»ä¹ī": 8306,
      "æĮ¡": 8307,
      "LV": 8308,
      "åĲĪéĢĤ": 8309,
      "ç«ĭåĪ»": 8310,
      "verex": 8311,
      "ods": 8312,
      "æıĲç¤º": 8313,
      "ä¸Ģå®¶": 8314,
      "éĿĴå°ĳå¹´": 8315,
      "å±±ä¸Ń": 8316,
      "åıĮéĩį": 8317,
      "plat": 8318,
      "temper": 8319,
      "åºĶæľī": 8320,
      "åīįçĶ°åĪ©å®¶": 8321,
      "suffici": 8322,
      "èĴ¸": 8323,
      "characterized": 8324,
      "ä¸¤æ¬¡": 8325,
      "æ¼ĶåĮĸ": 8326,
      "microsco": 8327,
      "äººå¿ĥ": 8328,
      "åĩłä½ķ": 8329,
      "incidence": 8330,
      "sity": 8331,
      "CV": 8332,
      "tumo": 8333,
      "éĺµåľ°": 8334,
      "å¤ĩåĲİ": 8335,
      "æŀģç«¯": 8336,
      "åįļçī©é¦Ĩ": 8337,
      "ä¸įè®º": 8338,
      "åłª": 8339,
      "åĻ¨å®ĺ": 8340,
      "sig": 8341,
      "çīºçī²": 8342,
      "è´¼": 8343,
      "å¹¿åĳĬ": 8344,
      "æľ¬æ¡Ī": 8345,
      "æ·±è¿ľ": 8346,
      "means": 8347,
      "skin": 8348,
      "éĵº": 8349,
      "åŁºæľ¬åİŁçĲĨ": 8350,
      "æĸĳ": 8351,
      "å¯¹æīĭ": 8352,
      "ä¸įå¦Ĥ": 8353,
      "approxim": 8354,
      "åĲĮæĹı": 8355,
      "malign": 8356,
      "saf": 8357,
      "æµģåĬ¨æĢ§": 8358,
      "èĤ¤": 8359,
      "ME": 8360,
      "leuk": 8361,
      "å®ļéĩı": 8362,
      "åĬłå¯Ĩ": 8363,
      "UC": 8364,
      "èµ·æºĲ": 8365,
      "Is": 8366,
      "æıĲåīį": 8367,
      "HT": 8368,
      "require": 8369,
      "çīĪæľ¬": 8370,
      "èº«è¾¹": 8371,
      "ortex": 8372,
      "paper": 8373,
      "æĭĸ": 8374,
      "ardi": 8375,
      "æĮĩåĲĳ": 8376,
      "æ¢³çĲĨ": 8377,
      "åĨ³å®ļæĢ§": 8378,
      "utions": 8379,
      "æ¨¡ç³Ĭ": 8380,
      "è¡Įéķ¿": 8381,
      "çªĦ": 8382,
      "åħ³èĬĤ": 8383,
      "æįĲ": 8384,
      "evaluate": 8385,
      "1585": 8386,
      "äºļæ´²": 8387,
      "æĻļå¹´": 8388,
      "statistical": 8389,
      "å¤§å°ĨåĨĽ": 8390,
      "çłĶç©¶åĳĺ": 8391,
      "è¥¿åĮĹ": 8392,
      "å°±ä»»": 8393,
      "arly": 8394,
      "èĴĭ": 8395,
      "alco": 8396,
      "çĶ¨éĢĶ": 8397,
      "expected": 8398,
      "location": 8399,
      "ä»£å½ĵä¸»": 8400,
      "together": 8401,
      "Bio": 8402,
      "ãĤĭ": 8403,
      "åĮħè£ħ": 8404,
      "myel": 8405,
      "åĪĽç«ĭ": 8406,
      "åįĹåĮĹæľĿ": 8407,
      "çĭ©": 8408,
      "New": 8409,
      "å§Ĳ": 8410,
      "è¯ĪéªĹ": 8411,
      "espec": 8412,
      "accum": 8413,
      "enhanced": 8414,
      "na": 8415,
      "eding": 8416,
      "âĦĥ": 8417,
      "genous": 8418,
      "explo": 8419,
      "åĲĪæł¼": 8420,
      "ering": 8421,
      "çī©èµĦ": 8422,
      "åħ¬åĽŃ": 8423,
      "another": 8424,
      "viruses": 8425,
      "éĢļè®¯": 8426,
      "glut": 8427,
      "æĹ¬": 8428,
      "éĺĲéĩĬ": 8429,
      "éĴĻ": 8430,
      "myo": 8431,
      "especially": 8432,
      "çĸ²": 8433,
      "å¤ļæł·åĮĸ": 8434,
      "1575": 8435,
      "secondary": 8436,
      "Sh": 8437,
      "å¼Ĥè®®": 8438,
      "disorder": 8439,
      "æĦıæĦ¿": 8440,
      "screening": 8441,
      "macrophages": 8442,
      "èĩ³åħ³éĩįè¦ģ": 8443,
      "éĤĢè¯·": 8444,
      "åŁºæľ¬ä¸Ĭ": 8445,
      "åıĸæ¶Ī": 8446,
      "èĪĨè®º": 8447,
      "æ£Ģåľ°": 8448,
      "æĬĹæĪĺ": 8449,
      "æīĢæľīåĪ¶": 8450,
      "é»Ħæ²³": 8451,
      "åĳ½é¢ĺ": 8452,
      "æĭĺ": 8453,
      "åĬłåī§": 8454,
      "1578": 8455,
      "èµĦæºĲéħįç½®": 8456,
      "morpho": 8457,
      "ä¹¦æ³ķ": 8458,
      "çłĶåĪ¶": 8459,
      "èĿ": 8460,
      "æĶ¿åįı": 8461,
      "è¯ļä¿¡": 8462,
      "ç³ĸå°¿": 8463,
      "ä¸¾è¯ģ": 8464,
      "ä¹¦åĨĻ": 8465,
      "åĨħä¹±": 8466,
      "covery": 8467,
      "é«ĺç«¯": 8468,
      "ä¼ĺçĤ¹": 8469,
      "è¯±å¯¼": 8470,
      "é¢ĦèŃ¦": 8471,
      "æ·ĭå·´": 8472,
      "é¤Ĳ": 8473,
      "interactions": 8474,
      "è¶³åĪ©ä¹īæĶ¿": 8475,
      "å®ŀä¹ł": 8476,
      "è¾±": 8477,
      "induction": 8478,
      "æĿł": 8479,
      "åĪĹå®ģ": 8480,
      "åĿļå®Ī": 8481,
      "åħ¨åĽ½äººå¤§": 8482,
      "æĮģä¹ħ": 8483,
      "distinc": 8484,
      "åħļçļĦå»ºè®¾": 8485,
      "strain": 8486,
      "èĩ³æŃ¤": 8487,
      "æĩĪ": 8488,
      "phenotype": 8489,
      "wild": 8490,
      "MI": 8491,
      "ç¨»åı¶": 8492,
      "Patients": 8493,
      "ä¸ĢæĹ¶": 8494,
      "å³»": 8495,
      "embr": 8496,
      "å¯¹çħ§": 8497,
      "head": 8498,
      "needed": 8499,
      "èĢĮå·²": 8500,
      "respiratory": 8501,
      "èµ·åħµ": 8502,
      "ãģ¦": 8503,
      "mel": 8504,
      "tric": 8505,
      "èİ±": 8506,
      "late": 8507,
      "pose": 8508,
      "çĪµ": 8509,
      "----------------------------": 8510,
      "æĪĸæĺ¯": 8511,
      "ä¸ľåįĹ": 8512,
      "è¿ĳåį«": 8513,
      "åıĹçĽĬ": 8514,
      "onset": 8515,
      "èµ¦": 8516,
      "æķĻèĤ²éĥ¨": 8517,
      "ä¸°èĩ£æĶ¿æĿĥ": 8518,
      "moder": 8519,
      "ç¦ıå¯º": 8520,
      "è¿Ļä½į": 8521,
      "æ®ĭçĸ¾": 8522,
      "åįĩé«ĺ": 8523,
      "èĭ±éĽĦ": 8524,
      "åıĹä½ĵ": 8525,
      "interpre": 8526,
      "é©°": 8527,
      "åħ¨æĸ¹ä½į": 8528,
      "last": 8529,
      "çħĮ": 8530,
      "å·¥ä½ľèĢħ": 8531,
      "EV": 8532,
      "æľ¨ä¸ĭ": 8533,
      "åį°åıĳ": 8534,
      "incubated": 8535,
      "tension": 8536,
      "appropriate": 8537,
      "tware": 8538,
      "ä¸Ģåº§": 8539,
      "åİĨä»£": 8540,
      "åĲĪåĲĮæ³ķ": 8541,
      "å®ŀè®Ń": 8542,
      "ii": 8543,
      "ä¸ĢçĶŁ": 8544,
      "ä¸īç»´": 8545,
      "æłĹ": 8546,
      "power": 8547,
      "ç«łç¨ĭ": 8548,
      "ç³ĸå°¿çĹħ": 8549,
      "åĢŃ": 8550,
      "æĹ¶æķĪ": 8551,
      "ised": 8552,
      "çĽ´ä¹ī": 8553,
      "ä¸Ģèī²": 8554,
      "å£°éŁ³": 8555,
      "ç¬¬ä¸īæĸ¹": 8556,
      "é¡½": 8557,
      "æľĭ": 8558,
      "ä¸ŃæĸŃ": 8559,
      "éĥ¨ä½į": 8560,
      "èĲ¥ä¸ļ": 8561,
      "éħĴäºķ": 8562,
      "vector": 8563,
      "æķĮå¯¹": 8564,
      "With": 8565,
      "tative": 8566,
      "supported": 8567,
      "ä¿¡æģ¯ç³»ç»Ł": 8568,
      "upon": 8569,
      "åĭ¾": 8570,
      "contribute": 8571,
      "uter": 8572,
      "åĪ·": 8573,
      "åĴĮçĿ¦": 8574,
      "fluid": 8575,
      "ä¸įå¼Ģ": 8576,
      "effic": 8577,
      "behavior": 8578,
      "ä»Ģä¹Īæł·": 8579,
      "toward": 8580,
      "radiation": 8581,
      "åŁºåĩĨ": 8582,
      "pite": 8583,
      "èĩ´ä½¿": 8584,
      "ç¦»å©ļ": 8585,
      "strategies": 8586,
      "ä¼łæŁĵ": 8587,
      "è®®åĴĮ": 8588,
      "dynam": 8589,
      "etal": 8590,
      "æŃ£æĪĲ": 8591,
      "å»¶éķ¿": 8592,
      "é©³": 8593,
      "èĥĮåıĽ": 8594,
      "recru": 8595,
      "migration": 8596,
      "å¾·å·Ŀç§Ģå¿ł": 8597,
      "æĿĤå¿Ĺ": 8598,
      "fl": 8599,
      "å°ıéĩİ": 8600,
      "monitor": 8601,
      "æŃ£éĿ¢": 8602,
      "å®ĹæĹ¨": 8603,
      "pulmonary": 8604,
      "åı¹": 8605,
      "è°±ä»£": 8606,
      "çĶµåŃĲåķĨåĬ¡": 8607,
      "è¿Ń": 8608,
      "home": 8609,
      "ç¾İå¥½çĶŁæ´»": 8610,
      "ä»¿çľŁ": 8611,
      "æ²¿æµ·": 8612,
      "1584": 8613,
      "çĽ´è¾ĸ": 8614,
      "çºłæŃ£": 8615,
      "çĽ¸èī¯": 8616,
      "æĹ¥åĲİ": 8617,
      "consis": 8618,
      "åľ°éĿ¢": 8619,
      "åħ¹": 8620,
      "peripheral": 8621,
      "surgical": 8622,
      "çŁ³å±±": 8623,
      "éĩıåĮĸ": 8624,
      "é¦ĸè¦ģ": 8625,
      "è¿ĽåĮĸ": 8626,
      "è¯¸ä¾¯": 8627,
      "å°ĳæķ°æ°ĳæĹı": 8628,
      "æľŁå¾ħ": 8629,
      "ä¸įç®¡": 8630,
      "focus": 8631,
      "åİ¿çº§": 8632,
      "tered": 8633,
      "gas": 8634,
      "ä¿¡å¿ł": 8635,
      "æīĢå¾Ĺç¨İ": 8636,
      "ä¸įäºĪ": 8637,
      "æłı": 8638,
      "ç§Ĵ": 8639,
      "ä¸īå¥½éķ¿åºĨ": 8640,
      "çŃĳåĲİ": 8641,
      "çĻĮçĹĩ": 8642,
      "throm": 8643,
      "è·µè¡Į": 8644,
      "ND": 8645,
      "ä¸Ģè¾¹": 8646,
      "éĢĥäº¡": 8647,
      "bir": 8648,
      "ton": 8649,
      "äº©": 8650,
      "è´ŁéĿ¢": 8651,
      "åħĪè¡Į": 8652,
      "ä½ĵåĨħ": 8653,
      "æ±¡æŁĵçī©": 8654,
      "åį´æĺ¯": 8655,
      "èįīæ¡Ī": 8656,
      "investigate": 8657,
      "çĶµæºĲ": 8658,
      "possi": 8659,
      "çŃĶæ¡Ī": 8660,
      "Ag": 8661,
      "IgG": 8662,
      "å¾Īå°ĳ": 8663,
      "æī¶æĮģ": 8664,
      "éĥ½å¸Ĥ": 8665,
      "å°ĺ": 8666,
      "èıħ": 8667,
      "administration": 8668,
      "è§£æŀĲ": 8669,
      "å±±å´İ": 8670,
      "æķĳæµİ": 8671,
      "refer": 8672,
      "ä¸īçĻ¾": 8673,
      "åĮł": 8674,
      "amino": 8675,
      "å®ŀåĬ¡": 8676,
      "åįĥåı¶": 8677,
      "biomark": 8678,
      "hours": 8679,
      "æĸĩåĮĸéģĹäº§": 8680,
      "æĪĲæĶ¿": 8681,
      "corresponding": 8682,
      "è°ĭåĪĴ": 8683,
      "ä¸ľæĸ¹": 8684,
      "åĳ¨å¹´": 8685,
      "éĺ»ç¢į": 8686,
      "å§Ĩ": 8687,
      "ç¡ħ": 8688,
      "ä¸Ģåįĥ": 8689,
      "åĽ½åľŁ": 8690,
      "ium": 8691,
      "é£ŀè¡Į": 8692,
      "ä½ľé£İ": 8693,
      "çľģçº§": 8694,
      "éŁµ": 8695,
      "æ±Łèĭı": 8696,
      "å¯¹å¤ĸå¼ĢæĶ¾": 8697,
      "å¯¡": 8698,
      "å®¢ä½ĵ": 8699,
      "æ°¸è¿ľ": 8700,
      "æłĩè¯Ĩ": 8701,
      "access": 8702,
      "ä¸¤åĨĽ": 8703,
      "ç»ĨåĮĸ": 8704,
      "Des": 8705,
      "literature": 8706,
      "éĵĥ": 8707,
      "alone": 8708,
      "åľ°å½¢": 8709,
      "æļ´éľ²": 8710,
      "çĶ³è¯·äºº": 8711,
      "åŃ¦æ´¾": 8712,
      "linked": 8713,
      "è·Łè¸ª": 8714,
      "å¤±ä¸ļ": 8715,
      "èĤºçĤİ": 8716,
      "pers": 8717,
      "Or": 8718,
      "åľ°å¤´": 8719,
      "ä¸įä»ħä»ħ": 8720,
      "æĥ©ç½ļ": 8721,
      "å¼ĢåŁİ": 8722,
      "æīĵå¼Ģ": 8723,
      "ä¸ĵçĶ¨": 8724,
      "åĸ»": 8725,
      "improved": 8726,
      "åĶ¯çī©ä¸»ä¹ī": 8727,
      "å¼Ģæĭĵ": 8728,
      "AK": 8729,
      "åĿĲæłĩ": 8730,
      "æĬĦ": 8731,
      "çķı": 8732,
      "åīª": 8733,
      "åħ¨æ°ĳ": 8734,
      "å®´": 8735,
      "æĳĨèĦ±": 8736,
      "Not": 8737,
      "èģĶåĬ¨": 8738,
      "çĹħåıĺ": 8739,
      "è¯Ħå®ļ": 8740,
      "ãģĭ": 8741,
      "sc": 8742,
      "åĽŀé¡¾": 8743,
      "ery": 8744,
      "éļĶç¦»": 8745,
      "summ": 8746,
      "hypothesis": 8747,
      "obj": 8748,
      "äºĶæĹ¥": 8749,
      "åº¸": 8750,
      "adults": 8751,
      "çºĤ": 8752,
      "intra": 8753,
      "ä¸įåĬ¨äº§": 8754,
      "ä¸Ńå±±": 8755,
      "å®ħéĤ¸": 8756,
      "ç¾İåŃ¦": 8757,
      "çº²è¦ģ": 8758,
      "å£³": 8759,
      "äº§åĩº": 8760,
      "ä¸ĭåİ»": 8761,
      "cepti": 8762,
      "While": 8763,
      "åĪĿä»£": 8764,
      "ä¸Ī": 8765,
      "èĦ¸": 8766,
      "èħĬ": 8767,
      "transplant": 8768,
      "è´¢çī©": 8769,
      "çķľ": 8770,
      "éĴ¥": 8771,
      "å¾·å·Ŀæ°ı": 8772,
      "åºŀå¤§": 8773,
      "å¤§æĪĺ": 8774,
      "æĻ´è´¤": 8775,
      "èĪŀåı°": 8776,
      "èĭ¥çĭŃ": 8777,
      "produced": 8778,
      "ifically": 8779,
      "signals": 8780,
      "åīĬå¼±": 8781,
      "ç´§æĢ¥": 8782,
      "ä¸Ģèĩ´æĢ§": 8783,
      "repres": 8784,
      "xi": 8785,
      "æĽ¹": 8786,
      "cytokines": 8787,
      "intestinal": 8788,
      "ites": 8789,
      "thal": 8790,
      "useful": 8791,
      "é»Ħéĩĳ": 8792,
      "åĪĨè¾¨": 8793,
      "ç»Īç«¯": 8794,
      "çĥ¯": 8795,
      "synthesis": 8796,
      "lipo": 8797,
      "necessary": 8798,
      "å°ıè¥¿": 8799,
      "è¯ĹæŃĮ": 8800,
      "researchers": 8801,
      "åıĤè§ģ": 8802,
      "è§ģäºİ": 8803,
      "sleep": 8804,
      "ç§Ģå®¶": 8805,
      "ems": 8806,
      "ç¾İä¸½": 8807,
      "æĸ°å¢ŀ": 8808,
      "å°ºå¯¸": 8809,
      "è¡Ģåİĭ": 8810,
      "frac": 8811,
      "æłª": 8812,
      "vaccin": 8813,
      "éķ¿éĹ¨": 8814,
      "åħ¨æĸ°": 8815,
      "employ": 8816,
      "æ²Ī": 8817,
      "åįģåĽĽæĿ¡": 8818,
      "Cy": 8819,
      "æŃ¦çĶ°æĻ´ä¿¡": 8820,
      "NI": 8821,
      "æ°Ķè±¡": 8822,
      "åĨ³æĪĺ": 8823,
      "å½±åĥı": 8824,
      "èĩªæ²»åĮº": 8825,
      "åıĸåĲĳ": 8826,
      "ä¸ŃåİŁ": 8827,
      "ç©¶ç«Ł": 8828,
      "eting": 8829,
      "è°ĥåº¦": 8830,
      "æ°ĽåĽ´": 8831,
      "åħ¨åĨĽ": 8832,
      "åĪĹä¸º": 8833,
      "å¼Ģè®¾": 8834,
      "ito": 8835,
      "overex": 8836,
      "much": 8837,
      "provides": 8838,
      "metabolism": 8839,
      "mutant": 8840,
      "åģıè®³": 8841,
      "whole": 8842,
      "icians": 8843,
      "è¿ľç¨ĭ": 8844,
      "ä¿ĺ": 8845,
      "1568": 8846,
      "åĸ·": 8847,
      "ä¸ĵä¸ļåĮĸ": 8848,
      "å½¢çĬ¶": 8849,
      "course": 8850,
      "causes": 8851,
      "è¥¿èĹı": 8852,
      "combined": 8853,
      "0001": 8854,
      "èĪĴ": 8855,
      "map": 8856,
      "ç»Īç»ĵ": 8857,
      "åĽłæŀľ": 8858,
      "åĬ©åĬĽ": 8859,
      "interventions": 8860,
      "è¿Ļä¹Ī": 8861,
      "blas": 8862,
      "æļĹæĿĢ": 8863,
      "æĹ¥éĩİ": 8864,
      "åı¸æ³ķè§£éĩĬ": 8865,
      "neuronal": 8866,
      "matrix": 8867,
      "intensity": 8868,
      "vision": 8869,
      "åĪĨéĴŁ": 8870,
      "æµĨ": 8871,
      "......": 8872,
      "åĩıæİĴ": 8873,
      "æµħäºķéķ¿æĶ¿": 8874,
      "æĢ»ç»Ł": 8875,
      "ç¼Ŀ": 8876,
      "ç²¹": 8877,
      "ä¸ĺ": 8878,
      "åĬ²": 8879,
      "èĢģå¹´äºº": 8880,
      "åŁºçĿ£æķĻ": 8881,
      "åķĨä¸ļéĵ¶è¡Į": 8882,
      "çİ°åŃĺ": 8883,
      "designed": 8884,
      "åĬ³åĬ¡": 8885,
      "Additional": 8886,
      "ventric": 8887,
      "impair": 8888,
      "âĳ£": 8889,
      "è¢«åĬ¨": 8890,
      "å®¡è®®": 8891,
      "ç®¡åĪ¶": 8892,
      "åľ³": 8893,
      "èĻļåģĩ": 8894,
      "æĹłäº§éĺ¶çº§": 8895,
      "LP": 8896,
      "context": 8897,
      "taneous": 8898,
      "1560": 8899,
      "six": 8900,
      "å¤ªéĺģ": 8901,
      "ç¼©å°ı": 8902,
      "éķ¿è¿ľ": 8903,
      "å¢ŀå¤§": 8904,
      "ãĤĴ": 8905,
      "æĸŃç»Ŀ": 8906,
      "èµĲè±«": 8907,
      "è®¨åıĸ": 8908,
      "è¸ı": 8909,
      "æ¸ħæ°´": 8910,
      "åĿļå¼º": 8911,
      "æľ¬åľŁ": 8912,
      "ç»ĵç®Ĺ": 8913,
      "Cor": 8914,
      "æĥ£": 8915,
      "æĸ¹æ³ķè®º": 8916,
      "å¯ĨéĽĨ": 8917,
      "fra": 8918,
      "simp": 8919,
      "åºĩ": 8920,
      "å¹²ç»Ĩèĥŀ": 8921,
      "å´©æºĥ": 8922,
      "content": 8923,
      "æĹ©å·²": 8924,
      "stream": 8925,
      "squ": 8926,
      "çªĥ": 8927,
      "äºĶå¤§": 8928,
      "ç»ıçĲĨ": 8929,
      "èĲ½åľ°": 8930,
      "ä»İä¸¥æ²»åħļ": 8931,
      "ä¸Ģä»½": 8932,
      "èĥ°": 8933,
      "åĺ±": 8934,
      "SE": 8935,
      "èĤ¢": 8936,
      "åĳ½åĲį": 8937,
      "æĪĲåĥı": 8938,
      "å®¹åĻ¨": 8939,
      "åĩºç¾½": 8940,
      "è¡ĮæĶ¿åĮº": 8941,
      "æľºåĬ¨": 8942,
      "ç§įç§į": 8943,
      "RF": 8944,
      "ä¸¤åĽ½": 8945,
      "å°½éĩı": 8946,
      "capac": 8947,
      "éļ¾çĤ¹": 8948,
      "CN": 8949,
      "phag": 8950,
      "çĨĻ": 8951,
      "çĶ³æĬ¥": 8952,
      "ä»Ĺ": 8953,
      "activities": 8954,
      "ä¹ĭåĨħ": 8955,
      "Institute": 8956,
      "è¥¿åĽ½": 8957,
      "èĥº": 8958,
      "è¿ª": 8959,
      "åıĭå¥½": 8960,
      "ä¹ĭæĹ¥èµ·": 8961,
      "ä¸įåĲĮäºİ": 8962,
      "cultured": 8963,
      "must": 8964,
      "inhibitors": 8965,
      "å¹¿éĺĶ": 8966,
      "1569": 8967,
      "å¸¸åĬ¡": 8968,
      "developing": 8969,
      "limit": 8970,
      "åı¯çŁ¥": 8971,
      "tili": 8972,
      "Gen": 8973,
      "anes": 8974,
      "ake": 8975,
      "èģĶç»ľ": 8976,
      "å®ĺæĸ¹": 8977,
      "tries": 8978,
      "æĿłæĿĨ": 8979,
      "sions": 8980,
      "æµ¸": 8981,
      "GP": 8982,
      "ä¸īä½į": 8983,
      "èŀº": 8984,
      "éĥ¨ä»¶": 8985,
      "æľ«æľŁ": 8986,
      "blot": 8987,
      "SNP": 8988,
      "sum": 8989,
      "åĲİè£Ķ": 8990,
      "éĺ²æĬ¤": 8991,
      "äº¤ç»Ļ": 8992,
      "recently": 8993,
      "åĽ½éĻħåĮĸ": 8994,
      "aring": 8995,
      "å®ŀè¯ģ": 8996,
      "åħĥæľį": 8997,
      "å¹³æĸ¹": 8998,
      "display": 8999,
      "å¹¶åıĳ": 9000,
      "è¯Ħè®º": 9001,
      "cardiovascular": 9002,
      "çİ»": 9003,
      "nuclear": 9004,
      "æķĻåŃ¦åĨħå®¹": 9005,
      "cortex": 9006,
      "underlying": 9007,
      "induce": 9008,
      "ä¸įæķ¢": 9009,
      "ç»Ħå»º": 9010,
      "approved": 9011,
      "ä¿Ŀå¯Ĩ": 9012,
      "åĪĿçº§": 9013,
      "grade": 9014,
      "young": 9015,
      "æ¬¡å¹´": 9016,
      "å¹³åİŁ": 9017,
      "åĩłç§į": 9018,
      "æ·±åľ³": 9019,
      "ster": 9020,
      "åĩ¸æĺ¾": 9021,
      "ä¸īæĸ¹": 9022,
      "text": 9023,
      "æİ¨çĲĨ": 9024,
      "èĮĥå¼ı": 9025,
      "terms": 9026,
      "ç®¡çĲĨèĢħ": 9027,
      "efficacy": 9028,
      "unit": 9029,
      "çľĭæ³ķ": 9030,
      "è¶³åĪ©ä¹īè¾ī": 9031,
      "çĿ¡": 9032,
      "æ¸ħæ´²": 9033,
      "æ°´åĪ©": 9034,
      "learning": 9035,
      "å°ĨæĿ¥": 9036,
      "è¶³ä»¥": 9037,
      "ä»£è¡¨æĢ§": 9038,
      "ä¸ĬæĢ»": 9039,
      "åĲĽä¸»": 9040,
      "èĮ¨": 9041,
      "åİĺ": 9042,
      "suscepti": 9043,
      "ãģª": 9044,
      "axis": 9045,
      "åīįéĿ¢": 9046,
      "å°ıçī§": 9047,
      "éĻĨç»Ń": 9048,
      "åĮħå®¹": 9049,
      "ibr": 9050,
      "iv": 9051,
      "æ¸ħç®Ĺ": 9052,
      "æĨ": 9053,
      "ä¸ĥæĹ¥": 9054,
      "å¢ĥçķĮ": 9055,
      "æī«æıı": 9056,
      "åŁºç¡ĢæĢ§": 9057,
      "å°ıé¼ł": 9058,
      "ired": 9059,
      "åĳĪçİ°åĩº": 9060,
      "zation": 9061,
      "ç»Łæ²»èĢħ": 9062,
      "æ¿ĢæĪĺ": 9063,
      "å»ºæ¨¡": 9064,
      "å¢ŀå¤ļ": 9065,
      "ç§įåŃĲ": 9066,
      "è´¯å½»èĲ½å®ŀ": 9067,
      "essential": 9068,
      "æĪĺçķ¥æĢ§": 9069,
      "ä¹īåĬ¡æķĻèĤ²": 9070,
      "éĺµäº¡": 9071,
      "phosphorylation": 9072,
      "éĿĻèĦī": 9073,
      "elevated": 9074,
      "çī©ç§į": 9075,
      "apy": 9076,
      "ä¹ĥæĺ¯": 9077,
      "ç¥Ģ": 9078,
      "æĵ¦": 9079,
      "jo": 9080,
      "æĶ»åĬ¿": 9081,
      "æī®æ¼Ķ": 9082,
      "If": 9083,
      "knock": 9084,
      "å®ĺèģĮ": 9085,
      "å¦¨": 9086,
      "åĲĮåŃ¦": 9087,
      "ç¢°": 9088,
      "duration": 9089,
      "processing": 9090,
      "æµħéĩİ": 9091,
      "èģĮä½į": 9092,
      "ç´§å¼ł": 9093,
      "article": 9094,
      "ä¸ľåĽ½": 9095,
      "æĶ¿éķ¿": 9096,
      "å¯Ĩçłģ": 9097,
      "äºĮåįģå¤§": 9098,
      "AB": 9099,
      "ä¾¿äºİ": 9100,
      "pal": 9101,
      "å¤§è´¥": 9102,
      "ä¸ªæĢ§åĮĸ": 9103,
      "3000": 9104,
      "åĩŃåĢŁ": 9105,
      "åĪłéĻ¤": 9106,
      "pot": 9107,
      "åĲĦæĹıäººæ°ĳ": 9108,
      "å¤§å±Ģ": 9109,
      "ä¸įå½ĵ": 9110,
      "Inter": 9111,
      "bral": 9112,
      "æľŁæľĽ": 9113,
      "æĻ¨": 9114,
      "åīĤéĩı": 9115,
      "genome": 9116,
      "morph": 9117,
      "forms": 9118,
      "person": 9119,
      "é£ŀæľº": 9120,
      "att": 9121,
      "ä¾£": 9122,
      "éĥģ": 9123,
      "åıįåĩ»": 9124,
      "é«ĺèĻİ": 9125,
      "ä¼Ļä¼´": 9126,
      "ä¾ĽåºĶåķĨ": 9127,
      "éĥ¨ä¸ĭ": 9128,
      "æĪĲæ°ı": 9129,
      "water": 9130,
      "åįģä¸ĥæĿ¡": 9131,
      "phen": 9132,
      "ier": 9133,
      "é«ĺèģĮ": 9134,
      "urine": 9135,
      "æĹ©äºĳ": 9136,
      "ä¸Ģå¤©": 9137,
      "èĩªçĦ¶èµĦæºĲ": 9138,
      "åĨľæĪ·": 9139,
      "éĢŁçİĩ": 9140,
      "æ¥ł": 9141,
      "significance": 9142,
      "æĪĺä¹±": 9143,
      "åĢŁè´·": 9144,
      "èħ¾": 9145,
      "æĹ¶ç©º": 9146,
      "éľį": 9147,
      "Trans": 9148,
      "è¡¨æ¼Ķ": 9149,
      "ä¼ģåĽ¾": 9150,
      "ç¼ºå°ĳ": 9151,
      "èµ¢å¾Ĺ": 9152,
      "åįģäºĮæĿ¡": 9153,
      "ä¿¡åº·": 9154,
      "ä¿Ŀåħ¨": 9155,
      "chemical": 9156,
      "è¿Ķè¿ĺ": 9157,
      "hood": 9158,
      "uni": 9159,
      "ç§°ä¹ĭä¸º": 9160,
      "ä¸ĸä»£": 9161,
      "Gene": 9162,
      "çĿĢçľ¼": 9163,
      "ä¸ĢæĹ¶æľŁ": 9164,
      "techniques": 9165,
      "æĬĢå·§": 9166,
      "ingly": 9167,
      "è¿ĿèĥĮ": 9168,
      "å¥ĸåĬ±": 9169,
      "çĮİ": 9170,
      "éĽĨç»ĵ": 9171,
      "expressing": 9172,
      "æĢ§æł¼": 9173,
      "Su": 9174,
      "èĢ¦": 9175,
      "concer": 9176,
      "åħĳ": 9177,
      "LS": 9178,
      "ä¸Ļ": 9179,
      "èħ°": 9180,
      "biop": 9181,
      "They": 9182,
      "æĢ»å¤§å°Ĩ": 9183,
      "äºĴèģĶ": 9184,
      "properties": 9185,
      "bit": 9186,
      "ince": 9187,
      "temperature": 9188,
      "æĢ»é¢Ŀ": 9189,
      "Qu": 9190,
      "åĲİæĸ¹": 9191,
      "æ³·å·Ŀä¸ĢçĽĬ": 9192,
      "coding": 9193,
      "sens": 9194,
      "å¹¼åĲį": 9195,
      "overn": 9196,
      "having": 9197,
      "è¡Ĺéģĵ": 9198,
      "çŃĸåĪĴ": 9199,
      "sensitive": 9200,
      "My": 9201,
      "you": 9202,
      "éĤ£ä¸ª": 9203,
      "åĲĲ": 9204,
      "ä¸ľæµ·": 9205,
      "Cancer": 9206,
      "æĶ¾å¤§": 9207,
      "æĢª": 9208,
      "assays": 9209,
      "camp": 9210,
      "reat": 9211,
      "éĽ¾": 9212,
      "æķĪèĥ½": 9213,
      "ç§ĳåŃ¦éĻ¢": 9214,
      "002": 9215,
      "å¤įæĿĤæĢ§": 9216,
      "çķĮéĿ¢": 9217,
      "å§Ĭ": 9218,
      "æĺĶ": 9219,
      "ergic": 9220,
      "Mic": 9221,
      "ä¸ŃåŃ¦": 9222,
      "energy": 9223,
      "å®¶è°±": 9224,
      "å°½å¿«": 9225,
      "å¤®è¡Į": 9226,
      "æł¼æĸ¯": 9227,
      "æĹ¶æľº": 9228,
      "å·Ŀä¸Ńå²Ľ": 9229,
      "éŁ§": 9230,
      "approaches": 9231,
      "full": 9232,
      "ä¹ĭä¸¸": 9233,
      "å®ĺåĥļ": 9234,
      "ç®ĢåĮĸ": 9235,
      "CSF": 9236,
      "åĽĽå·Ŀ": 9237,
      "ç¼ºå¤±": 9238,
      "æ¬¢è¿İ": 9239,
      "strains": 9240,
      "duce": 9241,
      "çĶŁèĤ²": 9242,
      "æŀĦçŃĳ": 9243,
      "åĪĨæ³Į": 9244,
      "thesi": 9245,
      "å»ºçŃĳçī©": 9246,
      "ç»Ħä»¶": 9247,
      "æİĪäºĪ": 9248,
      "å¾ģå¤·": 9249,
      "measurements": 9250,
      "åĲķ": 9251,
      "å½ĵä¸ĭ": 9252,
      "éī´äºİ": 9253,
      "marker": 9254,
      "male": 9255,
      "ç§ĳåŃ¦çłĶç©¶": 9256,
      "éĻ¤å¤ĸ": 9257,
      "èīĺ": 9258,
      "ç½®äºİ": 9259,
      "æĭħå¿ĥ": 9260,
      "System": 9261,
      "buff": 9262,
      "èĩ£æľį": 9263,
      "eter": 9264,
      "ocytes": 9265,
      "æŀģåħ¶": 9266,
      "taken": 9267,
      "çĽĨ": 9268,
      "è¿«åĪĩ": 9269,
      "problems": 9270,
      "çķĻåľ¨": 9271,
      "é¹°": 9272,
      "along": 9273,
      "Intern": 9274,
      "ä¼Ĭæĸ¯": 9275,
      "è·¨è¶Ĭ": 9276,
      "Nor": 9277,
      "oti": 9278,
      "nm": 9279,
      "procedure": 9280,
      "tract": 9281,
      "sional": 9282,
      "å°ģéĹŃ": 9283,
      "ç¾İä½ľ": 9284,
      "event": 9285,
      "restric": 9286,
      "äºĭåĲİ": 9287,
      "èĢĮåĲİ": 9288,
      "å©´": 9289,
      "ä¸Ĭå¸Ĥåħ¬åı¸": 9290,
      "åīįæīĢ": 9291,
      "åıįå°Ħ": 9292,
      "èĪ°": 9293,
      "åį¢": 9294,
      "experience": 9295,
      "community": 9296,
      "chromo": 9297,
      "æīĭæľº": 9298,
      "åľ°åĽ¾": 9299,
      "ESM": 9300,
      "controlled": 9301,
      "ä¿®çŃĳ": 9302,
      "è¥¿åįĹ": 9303,
      "æĺİç¡®æıĲåĩº": 9304,
      "--------------------------------------------------------------------------------------------------------------------------------": 9305,
      "mediate": 9306,
      "showing": 9307,
      "å¾ĢæĿ¥": 9308,
      "çīĪæĿĥ": 9309,
      "èº«ä¸º": 9310,
      "çŁ©éĺµ": 9311,
      "åĪ¶å¤ĩ": 9312,
      "æİĮæİ§": 9313,
      "æĸ°çĶŁ": 9314,
      "thres": 9315,
      "esity": 9316,
      "åĬ¨æĳĩ": 9317,
      "alcohol": 9318,
      "HCC": 9319,
      "1999": 9320,
      "å¤§ä¹ħä¿Ŀ": 9321,
      "åĲĪæ³ķæĢ§": 9322,
      "ä»£å®ĺ": 9323,
      "ç»¼åĲĪæĢ§": 9324,
      "ä»»æĦı": 9325,
      "ä»İä¸Ń": 9326,
      "åıĺæį¢": 9327,
      "çĤİçĹĩ": 9328,
      "æĶ¶è´Ń": 9329,
      "ä½ľå®¶": 9330,
      "ç§»æ¤į": 9331,
      "CIT": 9332,
      "estimated": 9333,
      "é¢Ħè®¡": 9334,
      "RE": 9335,
      "ä¸ĬéĿ¢": 9336,
      "altern": 9337,
      "åħ¬è·¯": 9338,
      "circul": 9339,
      "çĥŃçĤ¹": 9340,
      "ç®¡æİ§": 9341,
      "ä¸Ńå°ıåŃ¦": 9342,
      "Sub": 9343,
      "åĽ¾çīĩ": 9344,
      "çĽŁåıĭ": 9345,
      "nai": 9346,
      "å¹¿å·ŀ": 9347,
      "omy": 9348,
      "component": 9349,
      "birth": 9350,
      "æ²¦": 9351,
      "åı¬éĽĨ": 9352,
      "é¢ĨåĨħ": 9353,
      "ç¤¾ä¼ļåŃ¦": 9354,
      "tomy": 9355,
      "invasive": 9356,
      "è¯Ľ": 9357,
      "çĶµç£ģ": 9358,
      "ird": 9359,
      "é«ĺéĩİ": 9360,
      "æĵįä½ľç³»ç»Ł": 9361,
      "è¡°éĢĢ": 9362,
      "æĺĤ": 9363,
      "110": 9364,
      "acts": 9365,
      "dysfunction": 9366,
      "itis": 9367,
      "åįĬå²Ľ": 9368,
      "åįģåĽĽäºĶ": 9369,
      "æı½": 9370,
      "åĮĹæĿ¡æ°ıæĶ¿": 9371,
      "rather": 9372,
      "Sur": 9373,
      "600": 9374,
      "æĺ¥æĹ¥": 9375,
      "ides": 9376,
      "VEGF": 9377,
      "é¢ł": 9378,
      "çº§åĪ«": 9379,
      "imer": 9380,
      "ç±»åĪ«": 9381,
      "Met": 9382,
      "åİĭç¼©": 9383,
      "åĬ«": 9384,
      "åĩ»çł´": 9385,
      "kidney": 9386,
      "å®īä¸ľ": 9387,
      "relatively": 9388,
      "IA": 9389,
      "ä¸Ģè½®": 9390,
      "æĻºåĬĽ": 9391,
      "åľ¨å®ŀè·µ": 9392,
      "ç´¯è®¡": 9393,
      "åĮĹéĻĨ": 9394,
      "Hospital": 9395,
      "æ¯ķä¸ļçĶŁ": 9396,
      "cluded": 9397,
      "ç»ıæµİä½ĵ": 9398,
      "å¾ģå¤·å¤§å°ĨåĨĽ": 9399,
      "mitochondrial": 9400,
      "degree": 9401,
      "åıĤä¸İèĢħ": 9402,
      "æµªäºº": 9403,
      "dimen": 9404,
      "å¯¼ä½ĵ": 9405,
      "åħ¶ä¸º": 9406,
      "èĸĦå¼±": 9407,
      "æķĳåĬ©": 9408,
      "æķ°åĢ¼": 9409,
      "Clinical": 9410,
      "Be": 9411,
      "åħ¬åĬ¡": 9412,
      "polar": 9413,
      "neural": 9414,
      "é¢ľèī²": 9415,
      "éĵŃ": 9416,
      "åİŁæĸĻ": 9417,
      "Mod": 9418,
      "åĽŃåĮº": 9419,
      "ç§Łäºº": 9420,
      "æ²³åįĹ": 9421,
      "åĶ¤": 9422,
      "IG": 9423,
      "ä¸¥å²Ľ": 9424,
      "Statis": 9425,
      "elines": 9426,
      "çŃĳåŁİ": 9427,
      "äºĮæ°§åĮĸç¢³": 9428,
      "åĮĢ": 9429,
      "Fe": 9430,
      "array": 9431,
      "å¸Ĥåľºä¸»ä½ĵ": 9432,
      "glyco": 9433,
      "å¯ĩ": 9434,
      "1998": 9435,
      "good": 9436,
      "å®ŀäºĭ": 9437,
      "bacterial": 9438,
      "å¤«äºº": 9439,
      "dominant": 9440,
      "æ¯«æĹł": 9441,
      "äººä¸İ": 9442,
      "nutr": 9443,
      "percentage": 9444,
      "Reg": 9445,
      "æ¨±": 9446,
      "æĮ«": 9447,
      "åħ¬è®°": 9448,
      "å¥Īèī¯": 9449,
      "software": 9450,
      "åıĳå±ķè¶ĭåĬ¿": 9451,
      "äº§èĥ½": 9452,
      "åįģä¸īæĿ¡": 9453,
      "MB": 9454,
      "approximately": 9455,
      "çªģåıĳ": 9456,
      "éĻĦåĬł": 9457,
      "å¯¹çŃĸ": 9458,
      "ull": 9459,
      "åĻªå£°": 9460,
      "PK": 9461,
      "é©»å®Ī": 9462,
      "æĿĤè´º": 9463,
      "åĬłèĹ¤æ¸ħæŃ£": 9464,
      "èĥľåħĥ": 9465,
      "retro": 9466,
      "ä¼ĺæĥł": 9467,
      "land": 9468,
      "æľ¬åŁİ": 9469,
      "æį®æŃ¤": 9470,
      "çŃ¾ç½²": 9471,
      "reaction": 9472,
      "æ³¨åħ¥": 9473,
      "å¿łèĥľ": 9474,
      "ç»Īèº«": 9475,
      "Spec": 9476,
      "ATP": 9477,
      "æ»¥çĶ¨": 9478,
      "è½¬èĢĮ": 9479,
      "PE": 9480,
      "Ty": 9481,
      "æĬķéĿł": 9482,
      "éĥ¡å±±": 9483,
      "pass": 9484,
      "éļħ": 9485,
      "added": 9486,
      "éļıæĹ¶": 9487,
      "åħħåĪĨåĪ©çĶ¨": 9488,
      "å¸ĮèħĬ": 9489,
      "å¤§éĩİ": 9490,
      "æĹ±": 9491,
      "ä¼łè¾¾": 9492,
      "æĹłéĻĲ": 9493,
      "èĩªæĦ¿": 9494,
      "åįķä¸ª": 9495,
      "aft": 9496,
      "Do": 9497,
      "injection": 9498,
      "å¤©æ´¥": 9499,
      "æľŁåĪĬ": 9500,
      "currence": 9501,
      "PBS": 9502,
      "æ±Ĺ": 9503,
      "resistant": 9504,
      "transmission": 9505,
      "å¹¿ä¹ī": 9506,
      "èĩªæŃ¤": 9507,
      "åĮ¿": 9508,
      "depression": 9509,
      "èº«ä¸Ĭ": 9510,
      "å¸Ĥæ°ĳ": 9511,
      "çº³è¨Ģ": 9512,
      "è¿ĩæĿ¥": 9513,
      "ç»ĨèĬĤ": 9514,
      "toxicity": 9515,
      "ç¥Ī": 9516,
      "å¤©å®Ī": 9517,
      "è¿ĺåİŁ": 9518,
      "åĬłæ·±": 9519,
      "åĸľæ¬¢": 9520,
      "choles": 9521,
      "numbers": 9522,
      "ä¿¡ç¹ģ": 9523,
      "åºĶæ°¸": 9524,
      "æīİå®ŀ": 9525,
      "cortical": 9526,
      "åĲīç»§": 9527,
[...]
